{
    "name": "1000_merges_tokenization.json",
    "creation_date": "2026-06-22_12-48-04",
    "vocab_size": 1256,
    "token_to_id": {
        "\u0000": 1,
        "\u0001": 2,
        "\u0002": 3,
        "\u0003": 4,
        "\u0004": 5,
        "\u0005": 6,
        "\u0006": 7,
        "\u0007": 8,
        "\b": 9,
        "\t": 10,
        "\n": 11,
        "\u000b": 12,
        "\f": 13,
        "\r": 14,
        "\u000e": 15,
        "\u000f": 16,
        "\u0010": 17,
        "\u0011": 18,
        "\u0012": 19,
        "\u0013": 20,
        "\u0014": 21,
        "\u0015": 22,
        "\u0016": 23,
        "\u0017": 24,
        "\u0018": 25,
        "\u0019": 26,
        "\u001a": 27,
        "\u001b": 28,
        "\u001c": 29,
        "\u001d": 30,
        "\u001e": 31,
        "\u001f": 32,
        " ": 33,
        "!": 34,
        "\"": 35,
        "#": 36,
        "$": 37,
        "%": 38,
        "&": 39,
        "'": 40,
        "(": 41,
        ")": 42,
        "*": 43,
        "+": 44,
        ",": 45,
        "-": 46,
        ".": 47,
        "/": 48,
        "0": 49,
        "1": 50,
        "2": 51,
        "3": 52,
        "4": 53,
        "5": 54,
        "6": 55,
        "7": 56,
        "8": 57,
        "9": 58,
        ":": 59,
        ";": 60,
        "<": 61,
        "=": 62,
        ">": 63,
        "?": 64,
        "@": 65,
        "A": 66,
        "B": 67,
        "C": 68,
        "D": 69,
        "E": 70,
        "F": 71,
        "G": 72,
        "H": 73,
        "I": 74,
        "J": 75,
        "K": 76,
        "L": 77,
        "M": 78,
        "N": 79,
        "O": 80,
        "P": 81,
        "Q": 82,
        "R": 83,
        "S": 84,
        "T": 85,
        "U": 86,
        "V": 87,
        "W": 88,
        "X": 89,
        "Y": 90,
        "Z": 91,
        "[": 92,
        "\\": 93,
        "]": 94,
        "^": 95,
        "_": 96,
        "`": 97,
        "a": 98,
        "b": 99,
        "c": 100,
        "d": 101,
        "e": 102,
        "f": 103,
        "g": 104,
        "h": 105,
        "i": 106,
        "j": 107,
        "k": 108,
        "l": 109,
        "m": 110,
        "n": 111,
        "o": 112,
        "p": 113,
        "q": 114,
        "r": 115,
        "s": 116,
        "t": 117,
        "u": 118,
        "v": 119,
        "w": 120,
        "x": 121,
        "y": 122,
        "z": 123,
        "{": 124,
        "|": 125,
        "}": 126,
        "~": 127,
        "": 128,
        "": 129,
        "": 130,
        "": 131,
        "": 132,
        "": 133,
        "": 134,
        "": 135,
        "": 136,
        "": 137,
        "": 138,
        "": 139,
        "": 140,
        "": 141,
        "": 142,
        "": 143,
        "": 144,
        "": 145,
        "": 146,
        "": 147,
        "": 148,
        "": 149,
        "": 150,
        "": 151,
        "": 152,
        "": 153,
        "": 154,
        "": 155,
        "": 156,
        "": 157,
        "": 158,
        "": 159,
        "": 160,
        " ": 161,
        "¡": 162,
        "¢": 163,
        "£": 164,
        "¤": 165,
        "¥": 166,
        "¦": 167,
        "§": 168,
        "¨": 169,
        "©": 170,
        "ª": 171,
        "«": 172,
        "¬": 173,
        "­": 174,
        "®": 175,
        "¯": 176,
        "°": 177,
        "±": 178,
        "²": 179,
        "³": 180,
        "´": 181,
        "µ": 182,
        "¶": 183,
        "·": 184,
        "¸": 185,
        "¹": 186,
        "º": 187,
        "»": 188,
        "¼": 189,
        "½": 190,
        "¾": 191,
        "¿": 192,
        "À": 193,
        "Á": 194,
        "Â": 195,
        "Ã": 196,
        "Ä": 197,
        "Å": 198,
        "Æ": 199,
        "Ç": 200,
        "È": 201,
        "É": 202,
        "Ê": 203,
        "Ë": 204,
        "Ì": 205,
        "Í": 206,
        "Î": 207,
        "Ï": 208,
        "Ð": 209,
        "Ñ": 210,
        "Ò": 211,
        "Ó": 212,
        "Ô": 213,
        "Õ": 214,
        "Ö": 215,
        "×": 216,
        "Ø": 217,
        "Ù": 218,
        "Ú": 219,
        "Û": 220,
        "Ü": 221,
        "Ý": 222,
        "Þ": 223,
        "ß": 224,
        "à": 225,
        "á": 226,
        "â": 227,
        "ã": 228,
        "ä": 229,
        "å": 230,
        "æ": 231,
        "ç": 232,
        "è": 233,
        "é": 234,
        "ê": 235,
        "ë": 236,
        "ì": 237,
        "í": 238,
        "î": 239,
        "ï": 240,
        "ð": 241,
        "ñ": 242,
        "ò": 243,
        "ó": 244,
        "ô": 245,
        "õ": 246,
        "ö": 247,
        "÷": 248,
        "ø": 249,
        "ù": 250,
        "ú": 251,
        "û": 252,
        "ü": 253,
        "ý": 254,
        "þ": 255,
        "ÿ": 256,
        "th": 257,
        ", ": 258,
        "ou": 259,
        "er": 260,
        "in": 261,
        "an": 262,
        ":\n": 263,
        "the": 264,
        "or": 265,
        "is": 266,
        "\n\n": 267,
        "en": 268,
        "ar": 269,
        "at": 270,
        "on": 271,
        "st": 272,
        "ll": 273,
        ",\n": 274,
        "me": 275,
        "to": 276,
        ".\n\n": 277,
        "and": 278,
        "he": 279,
        "you": 280,
        "es": 281,
        "no": 282,
        "se": 283,
        "ha": 284,
        "re": 285,
        "of": 286,
        "ve": 287,
        "it": 288,
        "ing": 289,
        "be": 290,
        "le": 291,
        "wi": 292,
        "my": 293,
        "hi": 294,
        "ow": 295,
        "ce": 296,
        "for": 297,
        "ay": 298,
        "as": 299,
        "ch": 300,
        "nd": 301,
        "ere": 302,
        "ld": 303,
        "ir": 304,
        "ed": 305,
        "ut": 306,
        "ro": 307,
        "not": 308,
        "li": 309,
        "de": 310,
        "we": 311,
        "hat": 312,
        "that": 313,
        "gh": 314,
        "And": 315,
        "ke": 316,
        "; ": 317,
        "'s": 318,
        "oo": 319,
        "our": 320,
        "with": 321,
        "ome": 322,
        ";\n": 323,
        "ent": 324,
        "his": 325,
        ".\n": 326,
        "ri": 327,
        "your": 328,
        "thou": 329,
        ": ": 330,
        "ther": 331,
        "ad": 332,
        "al": 333,
        "et": 334,
        "'d": 335,
        "all": 336,
        "ght": 337,
        "EN": 338,
        "ur": 339,
        "us": 340,
        "have": 341,
        "him": 342,
        "IN": 343,
        "ly": 344,
        "so": 345,
        "?\n\n": 346,
        "ra": 347,
        "this": 348,
        "IO": 349,
        "ord": 350,
        "do": 351,
        "un": 352,
        "ho": 353,
        "ma": 354,
        ". ": 355,
        "ess": 356,
        "pe": 357,
        "fe": 358,
        "AR": 359,
        "ould": 360,
        "are": 361,
        "lo": 362,
        "here": 363,
        "ood": 364,
        "id": 365,
        "thy": 366,
        "ver": 367,
        "fa": 368,
        "ck": 369,
        "one": 370,
        "man": 371,
        "ti": 372,
        "now": 373,
        "The": 374,
        "am": 375,
        "sha": 376,
        "will": 377,
        "ne": 378,
        "ge": 379,
        "ain": 380,
        "but": 381,
        "ard": 382,
        "su": 383,
        "her": 384,
        "US": 385,
        "! ": 386,
        "ter": 387,
        "con": 388,
        "pr": 389,
        "Th": 390,
        "To": 391,
        "end": 392,
        "by": 393,
        "thee": 394,
        "ue": 395,
        "om": 396,
        "la": 397,
        "shall": 398,
        "art": 399,
        "mor": 400,
        "up": 401,
        "UC": 402,
        "sh": 403,
        "come": 404,
        "po": 405,
        "ING": 406,
        "rom": 407,
        "own": 408,
        "AN": 409,
        "ust": 410,
        "ta": 411,
        "That": 412,
        "tr": 413,
        "what": 414,
        "ER": 415,
        "OR": 416,
        "ous": 417,
        "mo": 418,
        "sel": 419,
        "!\n": 420,
        "ET": 421,
        "te": 422,
        "ES": 423,
        "go": 424,
        "good": 425,
        "if": 426,
        "ill": 427,
        "But": 428,
        "ine": 429,
        "? ": 430,
        "ath": 431,
        "hen": 432,
        "!\n\n": 433,
        "ble": 434,
        "ight": 435,
        "lord": 436,
        "'t": 437,
        "hich": 438,
        "ion": 439,
        "king": 440,
        "'ll": 441,
        "What": 442,
        "was": 443,
        "bo": 444,
        "il": 445,
        "ant": 446,
        "ven": 447,
        "KING": 448,
        "she": 449,
        "ca": 450,
        "?\n": 451,
        "ul": 452,
        "from": 453,
        "ong": 454,
        "bl": 455,
        "more": 456,
        "For": 457,
        "well": 458,
        "them": 459,
        "sa": 460,
        "IC": 461,
        "ak": 462,
        "sir": 463,
        "self": 464,
        "ind": 465,
        "would": 466,
        "there": 467,
        "wor": 468,
        "love": 469,
        "know": 470,
        "per": 471,
        "can": 472,
        "ct": 473,
        "out": 474,
        "ive": 475,
        "LO": 476,
        "ate": 477,
        "com": 478,
        "say": 479,
        "then": 480,
        "see": 481,
        "let": 482,
        "IUS": 483,
        "ARD": 484,
        "their": 485,
        "di": 486,
        "My": 487,
        "than": 488,
        "ci": 489,
        "ry": 490,
        "they": 491,
        "--": 492,
        "fore": 493,
        "I'll": 494,
        "ence": 495,
        "ag": 496,
        "ep": 497,
        "like": 498,
        "ear": 499,
        "spe": 500,
        "Go": 501,
        "ers": 502,
        "hy": 503,
        "may": 504,
        "EL": 505,
        "were": 506,
        "um": 507,
        "bro": 508,
        "way": 509,
        "pro": 510,
        "As": 511,
        "ast": 512,
        "We": 513,
        "ves": 514,
        "ish": 515,
        "ink": 516,
        "time": 517,
        "KE": 518,
        "hath": 519,
        "II": 520,
        "qu": 521,
        "irst": 522,
        "No": 523,
        "ure": 524,
        "He": 525,
        "make": 526,
        "ol": 527,
        "ple": 528,
        "You": 529,
        "who": 530,
        "thing": 531,
        "row": 532,
        "must": 533,
        "gra": 534,
        "ound": 535,
        "ith": 536,
        "ap": 537,
        "ave": 538,
        "some": 539,
        "ook": 540,
        "should": 541,
        "OL": 542,
        "father": 543,
        "fi": 544,
        "LA": 545,
        "RO": 546,
        "use": 547,
        "TIO": 548,
        "ity": 549,
        "too": 550,
        "had": 551,
        "upon": 552,
        "son": 553,
        "did": 554,
        "CA": 555,
        "day": 556,
        "ig": 557,
        "ance": 558,
        "ward": 559,
        "dis": 560,
        "ON": 561,
        "how": 562,
        "wo": 563,
        "which": 564,
        "death": 565,
        "oun": 566,
        "reat": 567,
        "word": 568,
        "IS": 569,
        "fri": 570,
        "If": 571,
        "sp": 572,
        "when": 573,
        "est": 574,
        "men": 575,
        "speak": 576,
        "entle": 577,
        "In": 578,
        "again": 579,
        "heart": 580,
        "ICH": 581,
        "RICH": 582,
        "vi": 583,
        "ful": 584,
        "DU": 585,
        "DUKE": 586,
        "hand": 587,
        "yet": 588,
        "old": 589,
        "mar": 590,
        "el": 591,
        "Thou": 592,
        "very": 593,
        "mine": 594,
        "UL": 595,
        "think": 596,
        "RICHARD": 597,
        "ENTIO": 598,
        "take": 599,
        "pl": 600,
        "Which": 601,
        "si": 602,
        "swe": 603,
        "ac": 604,
        "God": 605,
        "hear": 606,
        "Be": 607,
        "With": 608,
        "ince": 609,
        "INC": 610,
        "str": 611,
        "ign": 612,
        "Why": 613,
        "give": 614,
        "Of": 615,
        "na": 616,
        "such": 617,
        "First": 618,
        "land": 619,
        "ang": 620,
        "ness": 621,
        "most": 622,
        "blood": 623,
        "uch": 624,
        "AB": 625,
        "ex": 626,
        "des": 627,
        "ster": 628,
        "brother": 629,
        "these": 630,
        "tell": 631,
        "hea": 632,
        "br": 633,
        "any": 634,
        "ise": 635,
        "ey": 636,
        "ba": 637,
        "onour": 638,
        "UE": 639,
        "bre": 640,
        "other": 641,
        "im": 642,
        "where": 643,
        "llow": 644,
        "How": 645,
        "que": 646,
        "Come": 647,
        "less": 648,
        "ty": 649,
        "arm": 650,
        "life": 651,
        "coun": 652,
        "This": 653,
        "EST": 654,
        "look": 655,
        "new": 656,
        "ort": 657,
        "So": 658,
        "UCH": 659,
        "friend": 660,
        "Who": 661,
        "oul": 662,
        "gentle": 663,
        "ught": 664,
        "vo": 665,
        "GLO": 666,
        "GLOUC": 667,
        "GLOUCEST": 668,
        "GLOUCESTER": 669,
        "chi": 670,
        "ars": 671,
        "af": 672,
        "mis": 673,
        "ving": 674,
        "ady": 675,
        "hast": 676,
        "Lord": 677,
        "ab": 678,
        "urse": 679,
        "ts": 680,
        "Rome": 681,
        "night": 682,
        "off": 683,
        "rown": 684,
        "fair": 685,
        "RY": 686,
        "made": 687,
        "age": 688,
        "'st": 689,
        "LE": 690,
        "QUE": 691,
        "QUEEN": 692,
        "VINC": 693,
        "VINCENTIO": 694,
        "honour": 695,
        "Se": 696,
        "ans": 697,
        "tion": 698,
        "much": 699,
        "OF": 700,
        "ond": 701,
        "Is": 702,
        "lie": 703,
        "Where": 704,
        "urn": 705,
        "UM": 706,
        "LAN": 707,
        "Mar": 708,
        "pre": 709,
        "stand": 710,
        "cond": 711,
        "HEN": 712,
        "'tis": 713,
        "Now": 714,
        "che": 715,
        "name": 716,
        "tle": 717,
        "em": 718,
        "ef": 719,
        "HENRY": 720,
        "ng": 721,
        "part": 722,
        "never": 723,
        "ber": 724,
        "fear": 725,
        "io": 726,
        "ies": 727,
        "ces": 728,
        "Your": 729,
        "live": 730,
        "lt": 731,
        "ower": 732,
        "ser": 733,
        "jo": 734,
        "uke": 735,
        "It": 736,
        "great": 737,
        "call": 738,
        "ass": 739,
        "o'": 740,
        "fo": 741,
        "head": 742,
        "YOR": 743,
        "YORK": 744,
        "ree": 745,
        "und": 746,
        "ment": 747,
        "ation": 748,
        "Or": 749,
        "INIUS": 750,
        "cannot": 751,
        "pray": 752,
        "ever": 753,
        "heaven": 754,
        "red": 755,
        "true": 756,
        "ase": 757,
        "noble": 758,
        "PET": 759,
        "fl": 760,
        "pa": 761,
        "been": 762,
        "sweet": 763,
        "fort": 764,
        "co": 765,
        "'T": 766,
        "An": 767,
        "ED": 768,
        "EDW": 769,
        "EDWARD": 770,
        "done": 771,
        "mer": 772,
        "bet": 773,
        "GR": 774,
        ",--": 775,
        "doth": 776,
        "TH": 777,
        "iz": 778,
        "ough": 779,
        "nor": 780,
        "res": 781,
        "MEN": 782,
        "pt": 783,
        "LUC": 784,
        "pp": 785,
        "da": 786,
        "ouse": 787,
        "Ay": 788,
        "war": 789,
        "ull": 790,
        "ie": 791,
        "comm": 792,
        "There": 793,
        "int": 794,
        "gr": 795,
        "rest": 796,
        "When": 797,
        "Ed": 798,
        "bear": 799,
        "wr": 800,
        "grace": 801,
        "UT": 802,
        "ME": 803,
        "before": 804,
        "soul": 805,
        "Edward": 806,
        "ROME": 807,
        "ROMEO": 808,
        "MENEN": 809,
        "MENENIUS": 810,
        "world": 811,
        "By": 812,
        "both": 813,
        "ss": 814,
        "sc": 815,
        "queen": 816,
        "Ri": 817,
        "ace": 818,
        "Let": 819,
        "comes": 820,
        "Here": 821,
        "Then": 822,
        "ughter": 823,
        "orn": 824,
        "pri": 825,
        "down": 826,
        "dead": 827,
        "PETR": 828,
        "PETRUCH": 829,
        "PETRUCHIO": 830,
        "ings": 831,
        "OM": 832,
        "ved": 833,
        "ite": 834,
        "long": 835,
        "pres": 836,
        "TES": 837,
        "ake": 838,
        "ice": 839,
        "being": 840,
        "Than": 841,
        "wick": 842,
        "mother": 843,
        "leave": 844,
        "ru": 845,
        "hold": 846,
        "myself": 847,
        "ore": 848,
        "MAR": 849,
        "set": 850,
        "Cl": 851,
        "HA": 852,
        "cour": 853,
        "thus": 854,
        "cause": 855,
        "house": 856,
        "put": 857,
        "op": 858,
        "ret": 859,
        "COR": 860,
        "CORIO": 861,
        "CORIOLAN": 862,
        "CORIOLANUS": 863,
        "IZ": 864,
        "Second": 865,
        "tri": 866,
        "Nor": 867,
        "wife": 868,
        "whi": 869,
        "eyes": 870,
        "uck": 871,
        "beg": 872,
        "der": 873,
        "deed": 874,
        "thought": 875,
        "cl": 876,
        "Rich": 877,
        "BA": 878,
        "dy": 879,
        "child": 880,
        "poor": 881,
        "INA": 882,
        "itiz": 883,
        "itizen": 884,
        "die": 885,
        "She": 886,
        "Do": 887,
        "led": 888,
        "foo": 889,
        "tra": 890,
        "away": 891,
        "friends": 892,
        "right": 893,
        "IV": 894,
        "ds": 895,
        "III": 896,
        "might": 897,
        "Sir": 898,
        "stay": 899,
        "atter": 900,
        "crown": 901,
        "ks": 902,
        "pla": 903,
        "atch": 904,
        "light": 905,
        "ten": 906,
        "many": 907,
        "bid": 908,
        "ft": 909,
        "ins": 910,
        "War": 911,
        "Warwick": 912,
        "gri": 913,
        "lit": 914,
        "ach": 915,
        "tre": 916,
        "His": 917,
        "ps": 918,
        "'Tis": 919,
        "ison": 920,
        "cious": 921,
        "pose": 922,
        "ISAB": 923,
        "ISABEL": 924,
        "ISABELLA": 925,
        "mi": 926,
        "ange": 927,
        "daughter": 928,
        "nothing": 929,
        "Romeo": 930,
        "tal": 931,
        "Well": 932,
        "kind": 933,
        "tong": 934,
        "bra": 935,
        "face": 936,
        "gone": 937,
        "RAN": 938,
        "better": 939,
        "mad": 940,
        "par": 941,
        "kes": 942,
        "till": 943,
        ":\n\n": 944,
        "ose": 945,
        "ford": 946,
        "JUL": 947,
        "JULI": 948,
        "JULIET": 949,
        "LEON": 950,
        "LEONTES": 951,
        "gu": 952,
        "Nay": 953,
        "though": 954,
        "words": 955,
        "eng": 956,
        "VI": 957,
        "prince": 958,
        "ted": 959,
        "IL": 960,
        "ors": 961,
        "able": 962,
        "ears": 963,
        "une": 964,
        "LAD": 965,
        "LADY": 966,
        "show": 967,
        "wer": 968,
        "VOL": 969,
        "ENC": 970,
        "ENCE": 971,
        "ST": 972,
        "tend": 973,
        "ither": 974,
        "news": 975,
        "BR": 976,
        "ban": 977,
        "TA": 978,
        "Citizen": 979,
        "against": 980,
        "best": 981,
        "sent": 982,
        "ic": 983,
        "hall": 984,
        "Ser": 985,
        "urder": 986,
        "CL": 987,
        "joy": 988,
        "those": 989,
        "Pro": 990,
        "little": 991,
        "SIC": 992,
        "SICINIUS": 993,
        "hence": 994,
        "band": 995,
        "hour": 996,
        "lords": 997,
        "sle": 998,
        "tent": 999,
        "'er": 1000,
        "far": 1001,
        "ction": 1002,
        "cy": 1003,
        "ardon": 1004,
        "pur": 1005,
        "Un": 1006,
        "keep": 1007,
        "dear": 1008,
        "hel": 1009,
        "char": 1010,
        "tain": 1011,
        "two": 1012,
        "still": 1013,
        "law": 1014,
        "GRE": 1015,
        "himself": 1016,
        "Not": 1017,
        "forth": 1018,
        "power": 1019,
        "den": 1020,
        "mean": 1021,
        "roy": 1022,
        "back": 1023,
        "full": 1024,
        "Thy": 1025,
        "LUCIO": 1026,
        "its": 1027,
        "unto": 1028,
        "sub": 1029,
        "Richard": 1030,
        "Have": 1031,
        "peace": 1032,
        "ech": 1033,
        "therefore": 1034,
        "first": 1035,
        "ren": 1036,
        "iness": 1037,
        "Will": 1038,
        "tongue": 1039,
        "else": 1040,
        "bes": 1041,
        "could": 1042,
        "high": 1043,
        "ason": 1044,
        "hope": 1045,
        "ried": 1046,
        "Yor": 1047,
        "duke": 1048,
        "need": 1049,
        "ought": 1050,
        "hus": 1051,
        "conf": 1052,
        "ark": 1053,
        "cut": 1054,
        "nat": 1055,
        "under": 1056,
        "find": 1057,
        "thine": 1058,
        "lady": 1059,
        "earth": 1060,
        "young": 1061,
        "York": 1062,
        "ELIZ": 1063,
        "ELIZAB": 1064,
        "ELIZABET": 1065,
        "ELIZABETH": 1066,
        "came": 1067,
        "thr": 1068,
        "Good": 1069,
        "dre": 1070,
        "ople": 1071,
        "je": 1072,
        "ran": 1073,
        "just": 1074,
        "mind": 1075,
        "get": 1076,
        "home": 1077,
        "master": 1078,
        "IAN": 1079,
        "people": 1080,
        "once": 1081,
        "Yet": 1082,
        "husband": 1083,
        "Hen": 1084,
        "Henry": 1085,
        "comp": 1086,
        "place": 1087,
        "seem": 1088,
        "arewell": 1089,
        "IA": 1090,
        "happ": 1091,
        "lay": 1092,
        "after": 1093,
        "qui": 1094,
        "sor": 1095,
        "PER": 1096,
        "All": 1097,
        "ste": 1098,
        "Shall": 1099,
        "fall": 1100,
        "cle": 1101,
        "GE": 1102,
        "WAR": 1103,
        "WARW": 1104,
        "WARWIC": 1105,
        "WARWICK": 1106,
        "why": 1107,
        "ister": 1108,
        "fellow": 1109,
        "follow": 1110,
        "bed": 1111,
        "wel": 1112,
        "vant": 1113,
        "--\n": 1114,
        "last": 1115,
        "Nurse": 1116,
        "rep": 1117,
        "please": 1118,
        "They": 1119,
        "none": 1120,
        "HAM": 1121,
        "hither": 1122,
        "cha": 1123,
        "hor": 1124,
        "said": 1125,
        "dr": 1126,
        "gi": 1127,
        "pardon": 1128,
        "tru": 1129,
        "morrow": 1130,
        "CAP": 1131,
        "CAPUL": 1132,
        "CAPULET": 1133,
        "oud": 1134,
        "every": 1135,
        "gl": 1136,
        "dou": 1137,
        "bu": 1138,
        "bring": 1139,
        "hands": 1140,
        "kill": 1141,
        "pat": 1142,
        "woman": 1143,
        "boy": 1144,
        "gue": 1145,
        "ousin": 1146,
        "MIO": 1147,
        "try": 1148,
        "shi": 1149,
        "shame": 1150,
        "acc": 1151,
        "heard": 1152,
        "mber": 1153,
        "BRUT": 1154,
        "BRUTUS": 1155,
        "tem": 1156,
        "BUC": 1157,
        "BUCKING": 1158,
        "BUCKINGHAM": 1159,
        "ius": 1160,
        "ff": 1161,
        "bus": 1162,
        "From": 1163,
        "ates": 1164,
        "jest": 1165,
        "clo": 1166,
        "dra": 1167,
        "ESS": 1168,
        "BOL": 1169,
        "BOLING": 1170,
        "BOLINGB": 1171,
        "BOLINGBRO": 1172,
        "BOLINGBROKE": 1173,
        "LAU": 1174,
        "TRAN": 1175,
        "TRANIO": 1176,
        "whose": 1177,
        "sand": 1178,
        "car": 1179,
        "present": 1180,
        "tears": 1181,
        "uty": 1182,
        "MIL": 1183,
        "vost": 1184,
        "Our": 1185,
        "bri": 1186,
        "vy": 1187,
        "ken": 1188,
        "maid": 1189,
        "royal": 1190,
        "TIS": 1191,
        "sen": 1192,
        "state": 1193,
        "lack": 1194,
        "since": 1195,
        "pass": 1196,
        "cer": 1197,
        "cent": 1198,
        "wit": 1199,
        "wrong": 1200,
        "cur": 1201,
        "gar": 1202,
        "meet": 1203,
        "fal": 1204,
        "sorrow": 1205,
        "King": 1206,
        "NE": 1207,
        "MARG": 1208,
        "MARGAR": 1209,
        "MARGARET": 1210,
        "gain": 1211,
        "eye": 1212,
        "sun": 1213,
        "prison": 1214,
        "ATH": 1215,
        "while": 1216,
        "vir": 1217,
        "help": 1218,
        "On": 1219,
        "whom": 1220,
        "CAL": 1221,
        "les": 1222,
        "pi": 1223,
        "ition": 1224,
        "selves": 1225,
        "thousand": 1226,
        "answer": 1227,
        "ting": 1228,
        "about": 1229,
        "gen": 1230,
        "reme": 1231,
        "wn": 1232,
        "Bo": 1233,
        "vere": 1234,
        "gracious": 1235,
        "xt": 1236,
        "tress": 1237,
        "Clar": 1238,
        "ORD": 1239,
        "ANGE": 1240,
        "ANGELO": 1241,
        "HOR": 1242,
        "vil": 1243,
        "gre": 1244,
        "fool": 1245,
        "lies": 1246,
        "weep": 1247,
        "iss": 1248,
        "Clarence": 1249,
        "Eng": 1250,
        "CU": 1251,
        "ARINA": 1252,
        "Marci": 1253,
        "ceive": 1254,
        "ning": 1255,
        "mon": 1256
    },
    "id_to_token": {
        "1": "\u0000",
        "2": "\u0001",
        "3": "\u0002",
        "4": "\u0003",
        "5": "\u0004",
        "6": "\u0005",
        "7": "\u0006",
        "8": "\u0007",
        "9": "\b",
        "10": "\t",
        "11": "\n",
        "12": "\u000b",
        "13": "\f",
        "14": "\r",
        "15": "\u000e",
        "16": "\u000f",
        "17": "\u0010",
        "18": "\u0011",
        "19": "\u0012",
        "20": "\u0013",
        "21": "\u0014",
        "22": "\u0015",
        "23": "\u0016",
        "24": "\u0017",
        "25": "\u0018",
        "26": "\u0019",
        "27": "\u001a",
        "28": "\u001b",
        "29": "\u001c",
        "30": "\u001d",
        "31": "\u001e",
        "32": "\u001f",
        "33": " ",
        "34": "!",
        "35": "\"",
        "36": "#",
        "37": "$",
        "38": "%",
        "39": "&",
        "40": "'",
        "41": "(",
        "42": ")",
        "43": "*",
        "44": "+",
        "45": ",",
        "46": "-",
        "47": ".",
        "48": "/",
        "49": "0",
        "50": "1",
        "51": "2",
        "52": "3",
        "53": "4",
        "54": "5",
        "55": "6",
        "56": "7",
        "57": "8",
        "58": "9",
        "59": ":",
        "60": ";",
        "61": "<",
        "62": "=",
        "63": ">",
        "64": "?",
        "65": "@",
        "66": "A",
        "67": "B",
        "68": "C",
        "69": "D",
        "70": "E",
        "71": "F",
        "72": "G",
        "73": "H",
        "74": "I",
        "75": "J",
        "76": "K",
        "77": "L",
        "78": "M",
        "79": "N",
        "80": "O",
        "81": "P",
        "82": "Q",
        "83": "R",
        "84": "S",
        "85": "T",
        "86": "U",
        "87": "V",
        "88": "W",
        "89": "X",
        "90": "Y",
        "91": "Z",
        "92": "[",
        "93": "\\",
        "94": "]",
        "95": "^",
        "96": "_",
        "97": "`",
        "98": "a",
        "99": "b",
        "100": "c",
        "101": "d",
        "102": "e",
        "103": "f",
        "104": "g",
        "105": "h",
        "106": "i",
        "107": "j",
        "108": "k",
        "109": "l",
        "110": "m",
        "111": "n",
        "112": "o",
        "113": "p",
        "114": "q",
        "115": "r",
        "116": "s",
        "117": "t",
        "118": "u",
        "119": "v",
        "120": "w",
        "121": "x",
        "122": "y",
        "123": "z",
        "124": "{",
        "125": "|",
        "126": "}",
        "127": "~",
        "128": "",
        "129": "",
        "130": "",
        "131": "",
        "132": "",
        "133": "",
        "134": "",
        "135": "",
        "136": "",
        "137": "",
        "138": "",
        "139": "",
        "140": "",
        "141": "",
        "142": "",
        "143": "",
        "144": "",
        "145": "",
        "146": "",
        "147": "",
        "148": "",
        "149": "",
        "150": "",
        "151": "",
        "152": "",
        "153": "",
        "154": "",
        "155": "",
        "156": "",
        "157": "",
        "158": "",
        "159": "",
        "160": "",
        "161": " ",
        "162": "¡",
        "163": "¢",
        "164": "£",
        "165": "¤",
        "166": "¥",
        "167": "¦",
        "168": "§",
        "169": "¨",
        "170": "©",
        "171": "ª",
        "172": "«",
        "173": "¬",
        "174": "­",
        "175": "®",
        "176": "¯",
        "177": "°",
        "178": "±",
        "179": "²",
        "180": "³",
        "181": "´",
        "182": "µ",
        "183": "¶",
        "184": "·",
        "185": "¸",
        "186": "¹",
        "187": "º",
        "188": "»",
        "189": "¼",
        "190": "½",
        "191": "¾",
        "192": "¿",
        "193": "À",
        "194": "Á",
        "195": "Â",
        "196": "Ã",
        "197": "Ä",
        "198": "Å",
        "199": "Æ",
        "200": "Ç",
        "201": "È",
        "202": "É",
        "203": "Ê",
        "204": "Ë",
        "205": "Ì",
        "206": "Í",
        "207": "Î",
        "208": "Ï",
        "209": "Ð",
        "210": "Ñ",
        "211": "Ò",
        "212": "Ó",
        "213": "Ô",
        "214": "Õ",
        "215": "Ö",
        "216": "×",
        "217": "Ø",
        "218": "Ù",
        "219": "Ú",
        "220": "Û",
        "221": "Ü",
        "222": "Ý",
        "223": "Þ",
        "224": "ß",
        "225": "à",
        "226": "á",
        "227": "â",
        "228": "ã",
        "229": "ä",
        "230": "å",
        "231": "æ",
        "232": "ç",
        "233": "è",
        "234": "é",
        "235": "ê",
        "236": "ë",
        "237": "ì",
        "238": "í",
        "239": "î",
        "240": "ï",
        "241": "ð",
        "242": "ñ",
        "243": "ò",
        "244": "ó",
        "245": "ô",
        "246": "õ",
        "247": "ö",
        "248": "÷",
        "249": "ø",
        "250": "ù",
        "251": "ú",
        "252": "û",
        "253": "ü",
        "254": "ý",
        "255": "þ",
        "256": "ÿ",
        "257": "th",
        "258": ", ",
        "259": "ou",
        "260": "er",
        "261": "in",
        "262": "an",
        "263": ":\n",
        "264": "the",
        "265": "or",
        "266": "is",
        "267": "\n\n",
        "268": "en",
        "269": "ar",
        "270": "at",
        "271": "on",
        "272": "st",
        "273": "ll",
        "274": ",\n",
        "275": "me",
        "276": "to",
        "277": ".\n\n",
        "278": "and",
        "279": "he",
        "280": "you",
        "281": "es",
        "282": "no",
        "283": "se",
        "284": "ha",
        "285": "re",
        "286": "of",
        "287": "ve",
        "288": "it",
        "289": "ing",
        "290": "be",
        "291": "le",
        "292": "wi",
        "293": "my",
        "294": "hi",
        "295": "ow",
        "296": "ce",
        "297": "for",
        "298": "ay",
        "299": "as",
        "300": "ch",
        "301": "nd",
        "302": "ere",
        "303": "ld",
        "304": "ir",
        "305": "ed",
        "306": "ut",
        "307": "ro",
        "308": "not",
        "309": "li",
        "310": "de",
        "311": "we",
        "312": "hat",
        "313": "that",
        "314": "gh",
        "315": "And",
        "316": "ke",
        "317": "; ",
        "318": "'s",
        "319": "oo",
        "320": "our",
        "321": "with",
        "322": "ome",
        "323": ";\n",
        "324": "ent",
        "325": "his",
        "326": ".\n",
        "327": "ri",
        "328": "your",
        "329": "thou",
        "330": ": ",
        "331": "ther",
        "332": "ad",
        "333": "al",
        "334": "et",
        "335": "'d",
        "336": "all",
        "337": "ght",
        "338": "EN",
        "339": "ur",
        "340": "us",
        "341": "have",
        "342": "him",
        "343": "IN",
        "344": "ly",
        "345": "so",
        "346": "?\n\n",
        "347": "ra",
        "348": "this",
        "349": "IO",
        "350": "ord",
        "351": "do",
        "352": "un",
        "353": "ho",
        "354": "ma",
        "355": ". ",
        "356": "ess",
        "357": "pe",
        "358": "fe",
        "359": "AR",
        "360": "ould",
        "361": "are",
        "362": "lo",
        "363": "here",
        "364": "ood",
        "365": "id",
        "366": "thy",
        "367": "ver",
        "368": "fa",
        "369": "ck",
        "370": "one",
        "371": "man",
        "372": "ti",
        "373": "now",
        "374": "The",
        "375": "am",
        "376": "sha",
        "377": "will",
        "378": "ne",
        "379": "ge",
        "380": "ain",
        "381": "but",
        "382": "ard",
        "383": "su",
        "384": "her",
        "385": "US",
        "386": "! ",
        "387": "ter",
        "388": "con",
        "389": "pr",
        "390": "Th",
        "391": "To",
        "392": "end",
        "393": "by",
        "394": "thee",
        "395": "ue",
        "396": "om",
        "397": "la",
        "398": "shall",
        "399": "art",
        "400": "mor",
        "401": "up",
        "402": "UC",
        "403": "sh",
        "404": "come",
        "405": "po",
        "406": "ING",
        "407": "rom",
        "408": "own",
        "409": "AN",
        "410": "ust",
        "411": "ta",
        "412": "That",
        "413": "tr",
        "414": "what",
        "415": "ER",
        "416": "OR",
        "417": "ous",
        "418": "mo",
        "419": "sel",
        "420": "!\n",
        "421": "ET",
        "422": "te",
        "423": "ES",
        "424": "go",
        "425": "good",
        "426": "if",
        "427": "ill",
        "428": "But",
        "429": "ine",
        "430": "? ",
        "431": "ath",
        "432": "hen",
        "433": "!\n\n",
        "434": "ble",
        "435": "ight",
        "436": "lord",
        "437": "'t",
        "438": "hich",
        "439": "ion",
        "440": "king",
        "441": "'ll",
        "442": "What",
        "443": "was",
        "444": "bo",
        "445": "il",
        "446": "ant",
        "447": "ven",
        "448": "KING",
        "449": "she",
        "450": "ca",
        "451": "?\n",
        "452": "ul",
        "453": "from",
        "454": "ong",
        "455": "bl",
        "456": "more",
        "457": "For",
        "458": "well",
        "459": "them",
        "460": "sa",
        "461": "IC",
        "462": "ak",
        "463": "sir",
        "464": "self",
        "465": "ind",
        "466": "would",
        "467": "there",
        "468": "wor",
        "469": "love",
        "470": "know",
        "471": "per",
        "472": "can",
        "473": "ct",
        "474": "out",
        "475": "ive",
        "476": "LO",
        "477": "ate",
        "478": "com",
        "479": "say",
        "480": "then",
        "481": "see",
        "482": "let",
        "483": "IUS",
        "484": "ARD",
        "485": "their",
        "486": "di",
        "487": "My",
        "488": "than",
        "489": "ci",
        "490": "ry",
        "491": "they",
        "492": "--",
        "493": "fore",
        "494": "I'll",
        "495": "ence",
        "496": "ag",
        "497": "ep",
        "498": "like",
        "499": "ear",
        "500": "spe",
        "501": "Go",
        "502": "ers",
        "503": "hy",
        "504": "may",
        "505": "EL",
        "506": "were",
        "507": "um",
        "508": "bro",
        "509": "way",
        "510": "pro",
        "511": "As",
        "512": "ast",
        "513": "We",
        "514": "ves",
        "515": "ish",
        "516": "ink",
        "517": "time",
        "518": "KE",
        "519": "hath",
        "520": "II",
        "521": "qu",
        "522": "irst",
        "523": "No",
        "524": "ure",
        "525": "He",
        "526": "make",
        "527": "ol",
        "528": "ple",
        "529": "You",
        "530": "who",
        "531": "thing",
        "532": "row",
        "533": "must",
        "534": "gra",
        "535": "ound",
        "536": "ith",
        "537": "ap",
        "538": "ave",
        "539": "some",
        "540": "ook",
        "541": "should",
        "542": "OL",
        "543": "father",
        "544": "fi",
        "545": "LA",
        "546": "RO",
        "547": "use",
        "548": "TIO",
        "549": "ity",
        "550": "too",
        "551": "had",
        "552": "upon",
        "553": "son",
        "554": "did",
        "555": "CA",
        "556": "day",
        "557": "ig",
        "558": "ance",
        "559": "ward",
        "560": "dis",
        "561": "ON",
        "562": "how",
        "563": "wo",
        "564": "which",
        "565": "death",
        "566": "oun",
        "567": "reat",
        "568": "word",
        "569": "IS",
        "570": "fri",
        "571": "If",
        "572": "sp",
        "573": "when",
        "574": "est",
        "575": "men",
        "576": "speak",
        "577": "entle",
        "578": "In",
        "579": "again",
        "580": "heart",
        "581": "ICH",
        "582": "RICH",
        "583": "vi",
        "584": "ful",
        "585": "DU",
        "586": "DUKE",
        "587": "hand",
        "588": "yet",
        "589": "old",
        "590": "mar",
        "591": "el",
        "592": "Thou",
        "593": "very",
        "594": "mine",
        "595": "UL",
        "596": "think",
        "597": "RICHARD",
        "598": "ENTIO",
        "599": "take",
        "600": "pl",
        "601": "Which",
        "602": "si",
        "603": "swe",
        "604": "ac",
        "605": "God",
        "606": "hear",
        "607": "Be",
        "608": "With",
        "609": "ince",
        "610": "INC",
        "611": "str",
        "612": "ign",
        "613": "Why",
        "614": "give",
        "615": "Of",
        "616": "na",
        "617": "such",
        "618": "First",
        "619": "land",
        "620": "ang",
        "621": "ness",
        "622": "most",
        "623": "blood",
        "624": "uch",
        "625": "AB",
        "626": "ex",
        "627": "des",
        "628": "ster",
        "629": "brother",
        "630": "these",
        "631": "tell",
        "632": "hea",
        "633": "br",
        "634": "any",
        "635": "ise",
        "636": "ey",
        "637": "ba",
        "638": "onour",
        "639": "UE",
        "640": "bre",
        "641": "other",
        "642": "im",
        "643": "where",
        "644": "llow",
        "645": "How",
        "646": "que",
        "647": "Come",
        "648": "less",
        "649": "ty",
        "650": "arm",
        "651": "life",
        "652": "coun",
        "653": "This",
        "654": "EST",
        "655": "look",
        "656": "new",
        "657": "ort",
        "658": "So",
        "659": "UCH",
        "660": "friend",
        "661": "Who",
        "662": "oul",
        "663": "gentle",
        "664": "ught",
        "665": "vo",
        "666": "GLO",
        "667": "GLOUC",
        "668": "GLOUCEST",
        "669": "GLOUCESTER",
        "670": "chi",
        "671": "ars",
        "672": "af",
        "673": "mis",
        "674": "ving",
        "675": "ady",
        "676": "hast",
        "677": "Lord",
        "678": "ab",
        "679": "urse",
        "680": "ts",
        "681": "Rome",
        "682": "night",
        "683": "off",
        "684": "rown",
        "685": "fair",
        "686": "RY",
        "687": "made",
        "688": "age",
        "689": "'st",
        "690": "LE",
        "691": "QUE",
        "692": "QUEEN",
        "693": "VINC",
        "694": "VINCENTIO",
        "695": "honour",
        "696": "Se",
        "697": "ans",
        "698": "tion",
        "699": "much",
        "700": "OF",
        "701": "ond",
        "702": "Is",
        "703": "lie",
        "704": "Where",
        "705": "urn",
        "706": "UM",
        "707": "LAN",
        "708": "Mar",
        "709": "pre",
        "710": "stand",
        "711": "cond",
        "712": "HEN",
        "713": "'tis",
        "714": "Now",
        "715": "che",
        "716": "name",
        "717": "tle",
        "718": "em",
        "719": "ef",
        "720": "HENRY",
        "721": "ng",
        "722": "part",
        "723": "never",
        "724": "ber",
        "725": "fear",
        "726": "io",
        "727": "ies",
        "728": "ces",
        "729": "Your",
        "730": "live",
        "731": "lt",
        "732": "ower",
        "733": "ser",
        "734": "jo",
        "735": "uke",
        "736": "It",
        "737": "great",
        "738": "call",
        "739": "ass",
        "740": "o'",
        "741": "fo",
        "742": "head",
        "743": "YOR",
        "744": "YORK",
        "745": "ree",
        "746": "und",
        "747": "ment",
        "748": "ation",
        "749": "Or",
        "750": "INIUS",
        "751": "cannot",
        "752": "pray",
        "753": "ever",
        "754": "heaven",
        "755": "red",
        "756": "true",
        "757": "ase",
        "758": "noble",
        "759": "PET",
        "760": "fl",
        "761": "pa",
        "762": "been",
        "763": "sweet",
        "764": "fort",
        "765": "co",
        "766": "'T",
        "767": "An",
        "768": "ED",
        "769": "EDW",
        "770": "EDWARD",
        "771": "done",
        "772": "mer",
        "773": "bet",
        "774": "GR",
        "775": ",--",
        "776": "doth",
        "777": "TH",
        "778": "iz",
        "779": "ough",
        "780": "nor",
        "781": "res",
        "782": "MEN",
        "783": "pt",
        "784": "LUC",
        "785": "pp",
        "786": "da",
        "787": "ouse",
        "788": "Ay",
        "789": "war",
        "790": "ull",
        "791": "ie",
        "792": "comm",
        "793": "There",
        "794": "int",
        "795": "gr",
        "796": "rest",
        "797": "When",
        "798": "Ed",
        "799": "bear",
        "800": "wr",
        "801": "grace",
        "802": "UT",
        "803": "ME",
        "804": "before",
        "805": "soul",
        "806": "Edward",
        "807": "ROME",
        "808": "ROMEO",
        "809": "MENEN",
        "810": "MENENIUS",
        "811": "world",
        "812": "By",
        "813": "both",
        "814": "ss",
        "815": "sc",
        "816": "queen",
        "817": "Ri",
        "818": "ace",
        "819": "Let",
        "820": "comes",
        "821": "Here",
        "822": "Then",
        "823": "ughter",
        "824": "orn",
        "825": "pri",
        "826": "down",
        "827": "dead",
        "828": "PETR",
        "829": "PETRUCH",
        "830": "PETRUCHIO",
        "831": "ings",
        "832": "OM",
        "833": "ved",
        "834": "ite",
        "835": "long",
        "836": "pres",
        "837": "TES",
        "838": "ake",
        "839": "ice",
        "840": "being",
        "841": "Than",
        "842": "wick",
        "843": "mother",
        "844": "leave",
        "845": "ru",
        "846": "hold",
        "847": "myself",
        "848": "ore",
        "849": "MAR",
        "850": "set",
        "851": "Cl",
        "852": "HA",
        "853": "cour",
        "854": "thus",
        "855": "cause",
        "856": "house",
        "857": "put",
        "858": "op",
        "859": "ret",
        "860": "COR",
        "861": "CORIO",
        "862": "CORIOLAN",
        "863": "CORIOLANUS",
        "864": "IZ",
        "865": "Second",
        "866": "tri",
        "867": "Nor",
        "868": "wife",
        "869": "whi",
        "870": "eyes",
        "871": "uck",
        "872": "beg",
        "873": "der",
        "874": "deed",
        "875": "thought",
        "876": "cl",
        "877": "Rich",
        "878": "BA",
        "879": "dy",
        "880": "child",
        "881": "poor",
        "882": "INA",
        "883": "itiz",
        "884": "itizen",
        "885": "die",
        "886": "She",
        "887": "Do",
        "888": "led",
        "889": "foo",
        "890": "tra",
        "891": "away",
        "892": "friends",
        "893": "right",
        "894": "IV",
        "895": "ds",
        "896": "III",
        "897": "might",
        "898": "Sir",
        "899": "stay",
        "900": "atter",
        "901": "crown",
        "902": "ks",
        "903": "pla",
        "904": "atch",
        "905": "light",
        "906": "ten",
        "907": "many",
        "908": "bid",
        "909": "ft",
        "910": "ins",
        "911": "War",
        "912": "Warwick",
        "913": "gri",
        "914": "lit",
        "915": "ach",
        "916": "tre",
        "917": "His",
        "918": "ps",
        "919": "'Tis",
        "920": "ison",
        "921": "cious",
        "922": "pose",
        "923": "ISAB",
        "924": "ISABEL",
        "925": "ISABELLA",
        "926": "mi",
        "927": "ange",
        "928": "daughter",
        "929": "nothing",
        "930": "Romeo",
        "931": "tal",
        "932": "Well",
        "933": "kind",
        "934": "tong",
        "935": "bra",
        "936": "face",
        "937": "gone",
        "938": "RAN",
        "939": "better",
        "940": "mad",
        "941": "par",
        "942": "kes",
        "943": "till",
        "944": ":\n\n",
        "945": "ose",
        "946": "ford",
        "947": "JUL",
        "948": "JULI",
        "949": "JULIET",
        "950": "LEON",
        "951": "LEONTES",
        "952": "gu",
        "953": "Nay",
        "954": "though",
        "955": "words",
        "956": "eng",
        "957": "VI",
        "958": "prince",
        "959": "ted",
        "960": "IL",
        "961": "ors",
        "962": "able",
        "963": "ears",
        "964": "une",
        "965": "LAD",
        "966": "LADY",
        "967": "show",
        "968": "wer",
        "969": "VOL",
        "970": "ENC",
        "971": "ENCE",
        "972": "ST",
        "973": "tend",
        "974": "ither",
        "975": "news",
        "976": "BR",
        "977": "ban",
        "978": "TA",
        "979": "Citizen",
        "980": "against",
        "981": "best",
        "982": "sent",
        "983": "ic",
        "984": "hall",
        "985": "Ser",
        "986": "urder",
        "987": "CL",
        "988": "joy",
        "989": "those",
        "990": "Pro",
        "991": "little",
        "992": "SIC",
        "993": "SICINIUS",
        "994": "hence",
        "995": "band",
        "996": "hour",
        "997": "lords",
        "998": "sle",
        "999": "tent",
        "1000": "'er",
        "1001": "far",
        "1002": "ction",
        "1003": "cy",
        "1004": "ardon",
        "1005": "pur",
        "1006": "Un",
        "1007": "keep",
        "1008": "dear",
        "1009": "hel",
        "1010": "char",
        "1011": "tain",
        "1012": "two",
        "1013": "still",
        "1014": "law",
        "1015": "GRE",
        "1016": "himself",
        "1017": "Not",
        "1018": "forth",
        "1019": "power",
        "1020": "den",
        "1021": "mean",
        "1022": "roy",
        "1023": "back",
        "1024": "full",
        "1025": "Thy",
        "1026": "LUCIO",
        "1027": "its",
        "1028": "unto",
        "1029": "sub",
        "1030": "Richard",
        "1031": "Have",
        "1032": "peace",
        "1033": "ech",
        "1034": "therefore",
        "1035": "first",
        "1036": "ren",
        "1037": "iness",
        "1038": "Will",
        "1039": "tongue",
        "1040": "else",
        "1041": "bes",
        "1042": "could",
        "1043": "high",
        "1044": "ason",
        "1045": "hope",
        "1046": "ried",
        "1047": "Yor",
        "1048": "duke",
        "1049": "need",
        "1050": "ought",
        "1051": "hus",
        "1052": "conf",
        "1053": "ark",
        "1054": "cut",
        "1055": "nat",
        "1056": "under",
        "1057": "find",
        "1058": "thine",
        "1059": "lady",
        "1060": "earth",
        "1061": "young",
        "1062": "York",
        "1063": "ELIZ",
        "1064": "ELIZAB",
        "1065": "ELIZABET",
        "1066": "ELIZABETH",
        "1067": "came",
        "1068": "thr",
        "1069": "Good",
        "1070": "dre",
        "1071": "ople",
        "1072": "je",
        "1073": "ran",
        "1074": "just",
        "1075": "mind",
        "1076": "get",
        "1077": "home",
        "1078": "master",
        "1079": "IAN",
        "1080": "people",
        "1081": "once",
        "1082": "Yet",
        "1083": "husband",
        "1084": "Hen",
        "1085": "Henry",
        "1086": "comp",
        "1087": "place",
        "1088": "seem",
        "1089": "arewell",
        "1090": "IA",
        "1091": "happ",
        "1092": "lay",
        "1093": "after",
        "1094": "qui",
        "1095": "sor",
        "1096": "PER",
        "1097": "All",
        "1098": "ste",
        "1099": "Shall",
        "1100": "fall",
        "1101": "cle",
        "1102": "GE",
        "1103": "WAR",
        "1104": "WARW",
        "1105": "WARWIC",
        "1106": "WARWICK",
        "1107": "why",
        "1108": "ister",
        "1109": "fellow",
        "1110": "follow",
        "1111": "bed",
        "1112": "wel",
        "1113": "vant",
        "1114": "--\n",
        "1115": "last",
        "1116": "Nurse",
        "1117": "rep",
        "1118": "please",
        "1119": "They",
        "1120": "none",
        "1121": "HAM",
        "1122": "hither",
        "1123": "cha",
        "1124": "hor",
        "1125": "said",
        "1126": "dr",
        "1127": "gi",
        "1128": "pardon",
        "1129": "tru",
        "1130": "morrow",
        "1131": "CAP",
        "1132": "CAPUL",
        "1133": "CAPULET",
        "1134": "oud",
        "1135": "every",
        "1136": "gl",
        "1137": "dou",
        "1138": "bu",
        "1139": "bring",
        "1140": "hands",
        "1141": "kill",
        "1142": "pat",
        "1143": "woman",
        "1144": "boy",
        "1145": "gue",
        "1146": "ousin",
        "1147": "MIO",
        "1148": "try",
        "1149": "shi",
        "1150": "shame",
        "1151": "acc",
        "1152": "heard",
        "1153": "mber",
        "1154": "BRUT",
        "1155": "BRUTUS",
        "1156": "tem",
        "1157": "BUC",
        "1158": "BUCKING",
        "1159": "BUCKINGHAM",
        "1160": "ius",
        "1161": "ff",
        "1162": "bus",
        "1163": "From",
        "1164": "ates",
        "1165": "jest",
        "1166": "clo",
        "1167": "dra",
        "1168": "ESS",
        "1169": "BOL",
        "1170": "BOLING",
        "1171": "BOLINGB",
        "1172": "BOLINGBRO",
        "1173": "BOLINGBROKE",
        "1174": "LAU",
        "1175": "TRAN",
        "1176": "TRANIO",
        "1177": "whose",
        "1178": "sand",
        "1179": "car",
        "1180": "present",
        "1181": "tears",
        "1182": "uty",
        "1183": "MIL",
        "1184": "vost",
        "1185": "Our",
        "1186": "bri",
        "1187": "vy",
        "1188": "ken",
        "1189": "maid",
        "1190": "royal",
        "1191": "TIS",
        "1192": "sen",
        "1193": "state",
        "1194": "lack",
        "1195": "since",
        "1196": "pass",
        "1197": "cer",
        "1198": "cent",
        "1199": "wit",
        "1200": "wrong",
        "1201": "cur",
        "1202": "gar",
        "1203": "meet",
        "1204": "fal",
        "1205": "sorrow",
        "1206": "King",
        "1207": "NE",
        "1208": "MARG",
        "1209": "MARGAR",
        "1210": "MARGARET",
        "1211": "gain",
        "1212": "eye",
        "1213": "sun",
        "1214": "prison",
        "1215": "ATH",
        "1216": "while",
        "1217": "vir",
        "1218": "help",
        "1219": "On",
        "1220": "whom",
        "1221": "CAL",
        "1222": "les",
        "1223": "pi",
        "1224": "ition",
        "1225": "selves",
        "1226": "thousand",
        "1227": "answer",
        "1228": "ting",
        "1229": "about",
        "1230": "gen",
        "1231": "reme",
        "1232": "wn",
        "1233": "Bo",
        "1234": "vere",
        "1235": "gracious",
        "1236": "xt",
        "1237": "tress",
        "1238": "Clar",
        "1239": "ORD",
        "1240": "ANGE",
        "1241": "ANGELO",
        "1242": "HOR",
        "1243": "vil",
        "1244": "gre",
        "1245": "fool",
        "1246": "lies",
        "1247": "weep",
        "1248": "iss",
        "1249": "Clarence",
        "1250": "Eng",
        "1251": "CU",
        "1252": "ARINA",
        "1253": "Marci",
        "1254": "ceive",
        "1255": "ning",
        "1256": "mon"
    },
    "rules": [
        {
            "left": "t",
            "right": "h",
            "result": "th",
            "rank": 1
        },
        {
            "left": ",",
            "right": " ",
            "result": ", ",
            "rank": 2
        },
        {
            "left": "o",
            "right": "u",
            "result": "ou",
            "rank": 3
        },
        {
            "left": "e",
            "right": "r",
            "result": "er",
            "rank": 4
        },
        {
            "left": "i",
            "right": "n",
            "result": "in",
            "rank": 5
        },
        {
            "left": "a",
            "right": "n",
            "result": "an",
            "rank": 6
        },
        {
            "left": ":",
            "right": "\n",
            "result": ":\n",
            "rank": 7
        },
        {
            "left": "th",
            "right": "e",
            "result": "the",
            "rank": 8
        },
        {
            "left": "o",
            "right": "r",
            "result": "or",
            "rank": 9
        },
        {
            "left": "i",
            "right": "s",
            "result": "is",
            "rank": 10
        },
        {
            "left": "\n",
            "right": "\n",
            "result": "\n\n",
            "rank": 11
        },
        {
            "left": "e",
            "right": "n",
            "result": "en",
            "rank": 12
        },
        {
            "left": "a",
            "right": "r",
            "result": "ar",
            "rank": 13
        },
        {
            "left": "a",
            "right": "t",
            "result": "at",
            "rank": 14
        },
        {
            "left": "o",
            "right": "n",
            "result": "on",
            "rank": 15
        },
        {
            "left": "s",
            "right": "t",
            "result": "st",
            "rank": 16
        },
        {
            "left": "l",
            "right": "l",
            "result": "ll",
            "rank": 17
        },
        {
            "left": ",",
            "right": "\n",
            "result": ",\n",
            "rank": 18
        },
        {
            "left": "m",
            "right": "e",
            "result": "me",
            "rank": 19
        },
        {
            "left": "t",
            "right": "o",
            "result": "to",
            "rank": 20
        },
        {
            "left": ".",
            "right": "\n\n",
            "result": ".\n\n",
            "rank": 21
        },
        {
            "left": "an",
            "right": "d",
            "result": "and",
            "rank": 22
        },
        {
            "left": "h",
            "right": "e",
            "result": "he",
            "rank": 23
        },
        {
            "left": "y",
            "right": "ou",
            "result": "you",
            "rank": 24
        },
        {
            "left": "e",
            "right": "s",
            "result": "es",
            "rank": 25
        },
        {
            "left": "n",
            "right": "o",
            "result": "no",
            "rank": 26
        },
        {
            "left": "s",
            "right": "e",
            "result": "se",
            "rank": 27
        },
        {
            "left": "h",
            "right": "a",
            "result": "ha",
            "rank": 28
        },
        {
            "left": "r",
            "right": "e",
            "result": "re",
            "rank": 29
        },
        {
            "left": "o",
            "right": "f",
            "result": "of",
            "rank": 30
        },
        {
            "left": "v",
            "right": "e",
            "result": "ve",
            "rank": 31
        },
        {
            "left": "i",
            "right": "t",
            "result": "it",
            "rank": 32
        },
        {
            "left": "in",
            "right": "g",
            "result": "ing",
            "rank": 33
        },
        {
            "left": "b",
            "right": "e",
            "result": "be",
            "rank": 34
        },
        {
            "left": "l",
            "right": "e",
            "result": "le",
            "rank": 35
        },
        {
            "left": "w",
            "right": "i",
            "result": "wi",
            "rank": 36
        },
        {
            "left": "m",
            "right": "y",
            "result": "my",
            "rank": 37
        },
        {
            "left": "h",
            "right": "i",
            "result": "hi",
            "rank": 38
        },
        {
            "left": "o",
            "right": "w",
            "result": "ow",
            "rank": 39
        },
        {
            "left": "c",
            "right": "e",
            "result": "ce",
            "rank": 40
        },
        {
            "left": "f",
            "right": "or",
            "result": "for",
            "rank": 41
        },
        {
            "left": "a",
            "right": "y",
            "result": "ay",
            "rank": 42
        },
        {
            "left": "a",
            "right": "s",
            "result": "as",
            "rank": 43
        },
        {
            "left": "c",
            "right": "h",
            "result": "ch",
            "rank": 44
        },
        {
            "left": "n",
            "right": "d",
            "result": "nd",
            "rank": 45
        },
        {
            "left": "er",
            "right": "e",
            "result": "ere",
            "rank": 46
        },
        {
            "left": "l",
            "right": "d",
            "result": "ld",
            "rank": 47
        },
        {
            "left": "i",
            "right": "r",
            "result": "ir",
            "rank": 48
        },
        {
            "left": "e",
            "right": "d",
            "result": "ed",
            "rank": 49
        },
        {
            "left": "u",
            "right": "t",
            "result": "ut",
            "rank": 50
        },
        {
            "left": "r",
            "right": "o",
            "result": "ro",
            "rank": 51
        },
        {
            "left": "no",
            "right": "t",
            "result": "not",
            "rank": 52
        },
        {
            "left": "l",
            "right": "i",
            "result": "li",
            "rank": 53
        },
        {
            "left": "d",
            "right": "e",
            "result": "de",
            "rank": 54
        },
        {
            "left": "w",
            "right": "e",
            "result": "we",
            "rank": 55
        },
        {
            "left": "h",
            "right": "at",
            "result": "hat",
            "rank": 56
        },
        {
            "left": "th",
            "right": "at",
            "result": "that",
            "rank": 57
        },
        {
            "left": "g",
            "right": "h",
            "result": "gh",
            "rank": 58
        },
        {
            "left": "A",
            "right": "nd",
            "result": "And",
            "rank": 59
        },
        {
            "left": "k",
            "right": "e",
            "result": "ke",
            "rank": 60
        },
        {
            "left": ";",
            "right": " ",
            "result": "; ",
            "rank": 61
        },
        {
            "left": "'",
            "right": "s",
            "result": "'s",
            "rank": 62
        },
        {
            "left": "o",
            "right": "o",
            "result": "oo",
            "rank": 63
        },
        {
            "left": "ou",
            "right": "r",
            "result": "our",
            "rank": 64
        },
        {
            "left": "wi",
            "right": "th",
            "result": "with",
            "rank": 65
        },
        {
            "left": "o",
            "right": "me",
            "result": "ome",
            "rank": 66
        },
        {
            "left": ";",
            "right": "\n",
            "result": ";\n",
            "rank": 67
        },
        {
            "left": "en",
            "right": "t",
            "result": "ent",
            "rank": 68
        },
        {
            "left": "h",
            "right": "is",
            "result": "his",
            "rank": 69
        },
        {
            "left": ".",
            "right": "\n",
            "result": ".\n",
            "rank": 70
        },
        {
            "left": "r",
            "right": "i",
            "result": "ri",
            "rank": 71
        },
        {
            "left": "you",
            "right": "r",
            "result": "your",
            "rank": 72
        },
        {
            "left": "th",
            "right": "ou",
            "result": "thou",
            "rank": 73
        },
        {
            "left": ":",
            "right": " ",
            "result": ": ",
            "rank": 74
        },
        {
            "left": "th",
            "right": "er",
            "result": "ther",
            "rank": 75
        },
        {
            "left": "a",
            "right": "d",
            "result": "ad",
            "rank": 76
        },
        {
            "left": "a",
            "right": "l",
            "result": "al",
            "rank": 77
        },
        {
            "left": "e",
            "right": "t",
            "result": "et",
            "rank": 78
        },
        {
            "left": "'",
            "right": "d",
            "result": "'d",
            "rank": 79
        },
        {
            "left": "a",
            "right": "ll",
            "result": "all",
            "rank": 80
        },
        {
            "left": "gh",
            "right": "t",
            "result": "ght",
            "rank": 81
        },
        {
            "left": "E",
            "right": "N",
            "result": "EN",
            "rank": 82
        },
        {
            "left": "u",
            "right": "r",
            "result": "ur",
            "rank": 83
        },
        {
            "left": "u",
            "right": "s",
            "result": "us",
            "rank": 84
        },
        {
            "left": "ha",
            "right": "ve",
            "result": "have",
            "rank": 85
        },
        {
            "left": "hi",
            "right": "m",
            "result": "him",
            "rank": 86
        },
        {
            "left": "I",
            "right": "N",
            "result": "IN",
            "rank": 87
        },
        {
            "left": "l",
            "right": "y",
            "result": "ly",
            "rank": 88
        },
        {
            "left": "s",
            "right": "o",
            "result": "so",
            "rank": 89
        },
        {
            "left": "?",
            "right": "\n\n",
            "result": "?\n\n",
            "rank": 90
        },
        {
            "left": "r",
            "right": "a",
            "result": "ra",
            "rank": 91
        },
        {
            "left": "th",
            "right": "is",
            "result": "this",
            "rank": 92
        },
        {
            "left": "I",
            "right": "O",
            "result": "IO",
            "rank": 93
        },
        {
            "left": "or",
            "right": "d",
            "result": "ord",
            "rank": 94
        },
        {
            "left": "d",
            "right": "o",
            "result": "do",
            "rank": 95
        },
        {
            "left": "u",
            "right": "n",
            "result": "un",
            "rank": 96
        },
        {
            "left": "h",
            "right": "o",
            "result": "ho",
            "rank": 97
        },
        {
            "left": "m",
            "right": "a",
            "result": "ma",
            "rank": 98
        },
        {
            "left": ".",
            "right": " ",
            "result": ". ",
            "rank": 99
        },
        {
            "left": "es",
            "right": "s",
            "result": "ess",
            "rank": 100
        },
        {
            "left": "p",
            "right": "e",
            "result": "pe",
            "rank": 101
        },
        {
            "left": "f",
            "right": "e",
            "result": "fe",
            "rank": 102
        },
        {
            "left": "A",
            "right": "R",
            "result": "AR",
            "rank": 103
        },
        {
            "left": "ou",
            "right": "ld",
            "result": "ould",
            "rank": 104
        },
        {
            "left": "ar",
            "right": "e",
            "result": "are",
            "rank": 105
        },
        {
            "left": "l",
            "right": "o",
            "result": "lo",
            "rank": 106
        },
        {
            "left": "h",
            "right": "ere",
            "result": "here",
            "rank": 107
        },
        {
            "left": "oo",
            "right": "d",
            "result": "ood",
            "rank": 108
        },
        {
            "left": "i",
            "right": "d",
            "result": "id",
            "rank": 109
        },
        {
            "left": "th",
            "right": "y",
            "result": "thy",
            "rank": 110
        },
        {
            "left": "v",
            "right": "er",
            "result": "ver",
            "rank": 111
        },
        {
            "left": "f",
            "right": "a",
            "result": "fa",
            "rank": 112
        },
        {
            "left": "c",
            "right": "k",
            "result": "ck",
            "rank": 113
        },
        {
            "left": "on",
            "right": "e",
            "result": "one",
            "rank": 114
        },
        {
            "left": "m",
            "right": "an",
            "result": "man",
            "rank": 115
        },
        {
            "left": "t",
            "right": "i",
            "result": "ti",
            "rank": 116
        },
        {
            "left": "no",
            "right": "w",
            "result": "now",
            "rank": 117
        },
        {
            "left": "T",
            "right": "he",
            "result": "The",
            "rank": 118
        },
        {
            "left": "a",
            "right": "m",
            "result": "am",
            "rank": 119
        },
        {
            "left": "s",
            "right": "ha",
            "result": "sha",
            "rank": 120
        },
        {
            "left": "wi",
            "right": "ll",
            "result": "will",
            "rank": 121
        },
        {
            "left": "n",
            "right": "e",
            "result": "ne",
            "rank": 122
        },
        {
            "left": "g",
            "right": "e",
            "result": "ge",
            "rank": 123
        },
        {
            "left": "a",
            "right": "in",
            "result": "ain",
            "rank": 124
        },
        {
            "left": "b",
            "right": "ut",
            "result": "but",
            "rank": 125
        },
        {
            "left": "ar",
            "right": "d",
            "result": "ard",
            "rank": 126
        },
        {
            "left": "s",
            "right": "u",
            "result": "su",
            "rank": 127
        },
        {
            "left": "h",
            "right": "er",
            "result": "her",
            "rank": 128
        },
        {
            "left": "U",
            "right": "S",
            "result": "US",
            "rank": 129
        },
        {
            "left": "!",
            "right": " ",
            "result": "! ",
            "rank": 130
        },
        {
            "left": "t",
            "right": "er",
            "result": "ter",
            "rank": 131
        },
        {
            "left": "c",
            "right": "on",
            "result": "con",
            "rank": 132
        },
        {
            "left": "p",
            "right": "r",
            "result": "pr",
            "rank": 133
        },
        {
            "left": "T",
            "right": "h",
            "result": "Th",
            "rank": 134
        },
        {
            "left": "T",
            "right": "o",
            "result": "To",
            "rank": 135
        },
        {
            "left": "en",
            "right": "d",
            "result": "end",
            "rank": 136
        },
        {
            "left": "b",
            "right": "y",
            "result": "by",
            "rank": 137
        },
        {
            "left": "the",
            "right": "e",
            "result": "thee",
            "rank": 138
        },
        {
            "left": "u",
            "right": "e",
            "result": "ue",
            "rank": 139
        },
        {
            "left": "o",
            "right": "m",
            "result": "om",
            "rank": 140
        },
        {
            "left": "l",
            "right": "a",
            "result": "la",
            "rank": 141
        },
        {
            "left": "sha",
            "right": "ll",
            "result": "shall",
            "rank": 142
        },
        {
            "left": "ar",
            "right": "t",
            "result": "art",
            "rank": 143
        },
        {
            "left": "m",
            "right": "or",
            "result": "mor",
            "rank": 144
        },
        {
            "left": "u",
            "right": "p",
            "result": "up",
            "rank": 145
        },
        {
            "left": "U",
            "right": "C",
            "result": "UC",
            "rank": 146
        },
        {
            "left": "s",
            "right": "h",
            "result": "sh",
            "rank": 147
        },
        {
            "left": "c",
            "right": "ome",
            "result": "come",
            "rank": 148
        },
        {
            "left": "p",
            "right": "o",
            "result": "po",
            "rank": 149
        },
        {
            "left": "IN",
            "right": "G",
            "result": "ING",
            "rank": 150
        },
        {
            "left": "ro",
            "right": "m",
            "result": "rom",
            "rank": 151
        },
        {
            "left": "ow",
            "right": "n",
            "result": "own",
            "rank": 152
        },
        {
            "left": "A",
            "right": "N",
            "result": "AN",
            "rank": 153
        },
        {
            "left": "u",
            "right": "st",
            "result": "ust",
            "rank": 154
        },
        {
            "left": "t",
            "right": "a",
            "result": "ta",
            "rank": 155
        },
        {
            "left": "T",
            "right": "hat",
            "result": "That",
            "rank": 156
        },
        {
            "left": "t",
            "right": "r",
            "result": "tr",
            "rank": 157
        },
        {
            "left": "w",
            "right": "hat",
            "result": "what",
            "rank": 158
        },
        {
            "left": "E",
            "right": "R",
            "result": "ER",
            "rank": 159
        },
        {
            "left": "O",
            "right": "R",
            "result": "OR",
            "rank": 160
        },
        {
            "left": "ou",
            "right": "s",
            "result": "ous",
            "rank": 161
        },
        {
            "left": "m",
            "right": "o",
            "result": "mo",
            "rank": 162
        },
        {
            "left": "se",
            "right": "l",
            "result": "sel",
            "rank": 163
        },
        {
            "left": "!",
            "right": "\n",
            "result": "!\n",
            "rank": 164
        },
        {
            "left": "E",
            "right": "T",
            "result": "ET",
            "rank": 165
        },
        {
            "left": "t",
            "right": "e",
            "result": "te",
            "rank": 166
        },
        {
            "left": "E",
            "right": "S",
            "result": "ES",
            "rank": 167
        },
        {
            "left": "g",
            "right": "o",
            "result": "go",
            "rank": 168
        },
        {
            "left": "g",
            "right": "ood",
            "result": "good",
            "rank": 169
        },
        {
            "left": "i",
            "right": "f",
            "result": "if",
            "rank": 170
        },
        {
            "left": "i",
            "right": "ll",
            "result": "ill",
            "rank": 171
        },
        {
            "left": "B",
            "right": "ut",
            "result": "But",
            "rank": 172
        },
        {
            "left": "in",
            "right": "e",
            "result": "ine",
            "rank": 173
        },
        {
            "left": "?",
            "right": " ",
            "result": "? ",
            "rank": 174
        },
        {
            "left": "a",
            "right": "th",
            "result": "ath",
            "rank": 175
        },
        {
            "left": "h",
            "right": "en",
            "result": "hen",
            "rank": 176
        },
        {
            "left": "!",
            "right": "\n\n",
            "result": "!\n\n",
            "rank": 177
        },
        {
            "left": "b",
            "right": "le",
            "result": "ble",
            "rank": 178
        },
        {
            "left": "i",
            "right": "ght",
            "result": "ight",
            "rank": 179
        },
        {
            "left": "l",
            "right": "ord",
            "result": "lord",
            "rank": 180
        },
        {
            "left": "'",
            "right": "t",
            "result": "'t",
            "rank": 181
        },
        {
            "left": "hi",
            "right": "ch",
            "result": "hich",
            "rank": 182
        },
        {
            "left": "i",
            "right": "on",
            "result": "ion",
            "rank": 183
        },
        {
            "left": "k",
            "right": "ing",
            "result": "king",
            "rank": 184
        },
        {
            "left": "'",
            "right": "ll",
            "result": "'ll",
            "rank": 185
        },
        {
            "left": "W",
            "right": "hat",
            "result": "What",
            "rank": 186
        },
        {
            "left": "w",
            "right": "as",
            "result": "was",
            "rank": 187
        },
        {
            "left": "b",
            "right": "o",
            "result": "bo",
            "rank": 188
        },
        {
            "left": "i",
            "right": "l",
            "result": "il",
            "rank": 189
        },
        {
            "left": "an",
            "right": "t",
            "result": "ant",
            "rank": 190
        },
        {
            "left": "v",
            "right": "en",
            "result": "ven",
            "rank": 191
        },
        {
            "left": "K",
            "right": "ING",
            "result": "KING",
            "rank": 192
        },
        {
            "left": "s",
            "right": "he",
            "result": "she",
            "rank": 193
        },
        {
            "left": "c",
            "right": "a",
            "result": "ca",
            "rank": 194
        },
        {
            "left": "?",
            "right": "\n",
            "result": "?\n",
            "rank": 195
        },
        {
            "left": "u",
            "right": "l",
            "result": "ul",
            "rank": 196
        },
        {
            "left": "f",
            "right": "rom",
            "result": "from",
            "rank": 197
        },
        {
            "left": "on",
            "right": "g",
            "result": "ong",
            "rank": 198
        },
        {
            "left": "b",
            "right": "l",
            "result": "bl",
            "rank": 199
        },
        {
            "left": "mor",
            "right": "e",
            "result": "more",
            "rank": 200
        },
        {
            "left": "F",
            "right": "or",
            "result": "For",
            "rank": 201
        },
        {
            "left": "we",
            "right": "ll",
            "result": "well",
            "rank": 202
        },
        {
            "left": "the",
            "right": "m",
            "result": "them",
            "rank": 203
        },
        {
            "left": "s",
            "right": "a",
            "result": "sa",
            "rank": 204
        },
        {
            "left": "I",
            "right": "C",
            "result": "IC",
            "rank": 205
        },
        {
            "left": "a",
            "right": "k",
            "result": "ak",
            "rank": 206
        },
        {
            "left": "s",
            "right": "ir",
            "result": "sir",
            "rank": 207
        },
        {
            "left": "sel",
            "right": "f",
            "result": "self",
            "rank": 208
        },
        {
            "left": "in",
            "right": "d",
            "result": "ind",
            "rank": 209
        },
        {
            "left": "w",
            "right": "ould",
            "result": "would",
            "rank": 210
        },
        {
            "left": "th",
            "right": "ere",
            "result": "there",
            "rank": 211
        },
        {
            "left": "w",
            "right": "or",
            "result": "wor",
            "rank": 212
        },
        {
            "left": "lo",
            "right": "ve",
            "result": "love",
            "rank": 213
        },
        {
            "left": "k",
            "right": "now",
            "result": "know",
            "rank": 214
        },
        {
            "left": "p",
            "right": "er",
            "result": "per",
            "rank": 215
        },
        {
            "left": "c",
            "right": "an",
            "result": "can",
            "rank": 216
        },
        {
            "left": "c",
            "right": "t",
            "result": "ct",
            "rank": 217
        },
        {
            "left": "ou",
            "right": "t",
            "result": "out",
            "rank": 218
        },
        {
            "left": "i",
            "right": "ve",
            "result": "ive",
            "rank": 219
        },
        {
            "left": "L",
            "right": "O",
            "result": "LO",
            "rank": 220
        },
        {
            "left": "at",
            "right": "e",
            "result": "ate",
            "rank": 221
        },
        {
            "left": "c",
            "right": "om",
            "result": "com",
            "rank": 222
        },
        {
            "left": "s",
            "right": "ay",
            "result": "say",
            "rank": 223
        },
        {
            "left": "the",
            "right": "n",
            "result": "then",
            "rank": 224
        },
        {
            "left": "se",
            "right": "e",
            "result": "see",
            "rank": 225
        },
        {
            "left": "le",
            "right": "t",
            "result": "let",
            "rank": 226
        },
        {
            "left": "I",
            "right": "US",
            "result": "IUS",
            "rank": 227
        },
        {
            "left": "AR",
            "right": "D",
            "result": "ARD",
            "rank": 228
        },
        {
            "left": "the",
            "right": "ir",
            "result": "their",
            "rank": 229
        },
        {
            "left": "d",
            "right": "i",
            "result": "di",
            "rank": 230
        },
        {
            "left": "M",
            "right": "y",
            "result": "My",
            "rank": 231
        },
        {
            "left": "th",
            "right": "an",
            "result": "than",
            "rank": 232
        },
        {
            "left": "c",
            "right": "i",
            "result": "ci",
            "rank": 233
        },
        {
            "left": "r",
            "right": "y",
            "result": "ry",
            "rank": 234
        },
        {
            "left": "the",
            "right": "y",
            "result": "they",
            "rank": 235
        },
        {
            "left": "-",
            "right": "-",
            "result": "--",
            "rank": 236
        },
        {
            "left": "for",
            "right": "e",
            "result": "fore",
            "rank": 237
        },
        {
            "left": "I",
            "right": "'ll",
            "result": "I'll",
            "rank": 238
        },
        {
            "left": "en",
            "right": "ce",
            "result": "ence",
            "rank": 239
        },
        {
            "left": "a",
            "right": "g",
            "result": "ag",
            "rank": 240
        },
        {
            "left": "e",
            "right": "p",
            "result": "ep",
            "rank": 241
        },
        {
            "left": "li",
            "right": "ke",
            "result": "like",
            "rank": 242
        },
        {
            "left": "e",
            "right": "ar",
            "result": "ear",
            "rank": 243
        },
        {
            "left": "s",
            "right": "pe",
            "result": "spe",
            "rank": 244
        },
        {
            "left": "G",
            "right": "o",
            "result": "Go",
            "rank": 245
        },
        {
            "left": "er",
            "right": "s",
            "result": "ers",
            "rank": 246
        },
        {
            "left": "h",
            "right": "y",
            "result": "hy",
            "rank": 247
        },
        {
            "left": "m",
            "right": "ay",
            "result": "may",
            "rank": 248
        },
        {
            "left": "E",
            "right": "L",
            "result": "EL",
            "rank": 249
        },
        {
            "left": "w",
            "right": "ere",
            "result": "were",
            "rank": 250
        },
        {
            "left": "u",
            "right": "m",
            "result": "um",
            "rank": 251
        },
        {
            "left": "b",
            "right": "ro",
            "result": "bro",
            "rank": 252
        },
        {
            "left": "w",
            "right": "ay",
            "result": "way",
            "rank": 253
        },
        {
            "left": "p",
            "right": "ro",
            "result": "pro",
            "rank": 254
        },
        {
            "left": "A",
            "right": "s",
            "result": "As",
            "rank": 255
        },
        {
            "left": "a",
            "right": "st",
            "result": "ast",
            "rank": 256
        },
        {
            "left": "W",
            "right": "e",
            "result": "We",
            "rank": 257
        },
        {
            "left": "v",
            "right": "es",
            "result": "ves",
            "rank": 258
        },
        {
            "left": "is",
            "right": "h",
            "result": "ish",
            "rank": 259
        },
        {
            "left": "in",
            "right": "k",
            "result": "ink",
            "rank": 260
        },
        {
            "left": "ti",
            "right": "me",
            "result": "time",
            "rank": 261
        },
        {
            "left": "K",
            "right": "E",
            "result": "KE",
            "rank": 262
        },
        {
            "left": "ha",
            "right": "th",
            "result": "hath",
            "rank": 263
        },
        {
            "left": "I",
            "right": "I",
            "result": "II",
            "rank": 264
        },
        {
            "left": "q",
            "right": "u",
            "result": "qu",
            "rank": 265
        },
        {
            "left": "ir",
            "right": "st",
            "result": "irst",
            "rank": 266
        },
        {
            "left": "N",
            "right": "o",
            "result": "No",
            "rank": 267
        },
        {
            "left": "u",
            "right": "re",
            "result": "ure",
            "rank": 268
        },
        {
            "left": "H",
            "right": "e",
            "result": "He",
            "rank": 269
        },
        {
            "left": "ma",
            "right": "ke",
            "result": "make",
            "rank": 270
        },
        {
            "left": "o",
            "right": "l",
            "result": "ol",
            "rank": 271
        },
        {
            "left": "p",
            "right": "le",
            "result": "ple",
            "rank": 272
        },
        {
            "left": "Y",
            "right": "ou",
            "result": "You",
            "rank": 273
        },
        {
            "left": "w",
            "right": "ho",
            "result": "who",
            "rank": 274
        },
        {
            "left": "th",
            "right": "ing",
            "result": "thing",
            "rank": 275
        },
        {
            "left": "r",
            "right": "ow",
            "result": "row",
            "rank": 276
        },
        {
            "left": "m",
            "right": "ust",
            "result": "must",
            "rank": 277
        },
        {
            "left": "g",
            "right": "ra",
            "result": "gra",
            "rank": 278
        },
        {
            "left": "ou",
            "right": "nd",
            "result": "ound",
            "rank": 279
        },
        {
            "left": "i",
            "right": "th",
            "result": "ith",
            "rank": 280
        },
        {
            "left": "a",
            "right": "p",
            "result": "ap",
            "rank": 281
        },
        {
            "left": "a",
            "right": "ve",
            "result": "ave",
            "rank": 282
        },
        {
            "left": "s",
            "right": "ome",
            "result": "some",
            "rank": 283
        },
        {
            "left": "oo",
            "right": "k",
            "result": "ook",
            "rank": 284
        },
        {
            "left": "sh",
            "right": "ould",
            "result": "should",
            "rank": 285
        },
        {
            "left": "O",
            "right": "L",
            "result": "OL",
            "rank": 286
        },
        {
            "left": "fa",
            "right": "ther",
            "result": "father",
            "rank": 287
        },
        {
            "left": "f",
            "right": "i",
            "result": "fi",
            "rank": 288
        },
        {
            "left": "L",
            "right": "A",
            "result": "LA",
            "rank": 289
        },
        {
            "left": "R",
            "right": "O",
            "result": "RO",
            "rank": 290
        },
        {
            "left": "u",
            "right": "se",
            "result": "use",
            "rank": 291
        },
        {
            "left": "T",
            "right": "IO",
            "result": "TIO",
            "rank": 292
        },
        {
            "left": "it",
            "right": "y",
            "result": "ity",
            "rank": 293
        },
        {
            "left": "to",
            "right": "o",
            "result": "too",
            "rank": 294
        },
        {
            "left": "ha",
            "right": "d",
            "result": "had",
            "rank": 295
        },
        {
            "left": "up",
            "right": "on",
            "result": "upon",
            "rank": 296
        },
        {
            "left": "s",
            "right": "on",
            "result": "son",
            "rank": 297
        },
        {
            "left": "d",
            "right": "id",
            "result": "did",
            "rank": 298
        },
        {
            "left": "C",
            "right": "A",
            "result": "CA",
            "rank": 299
        },
        {
            "left": "d",
            "right": "ay",
            "result": "day",
            "rank": 300
        },
        {
            "left": "i",
            "right": "g",
            "result": "ig",
            "rank": 301
        },
        {
            "left": "an",
            "right": "ce",
            "result": "ance",
            "rank": 302
        },
        {
            "left": "w",
            "right": "ard",
            "result": "ward",
            "rank": 303
        },
        {
            "left": "d",
            "right": "is",
            "result": "dis",
            "rank": 304
        },
        {
            "left": "O",
            "right": "N",
            "result": "ON",
            "rank": 305
        },
        {
            "left": "h",
            "right": "ow",
            "result": "how",
            "rank": 306
        },
        {
            "left": "w",
            "right": "o",
            "result": "wo",
            "rank": 307
        },
        {
            "left": "w",
            "right": "hich",
            "result": "which",
            "rank": 308
        },
        {
            "left": "de",
            "right": "ath",
            "result": "death",
            "rank": 309
        },
        {
            "left": "ou",
            "right": "n",
            "result": "oun",
            "rank": 310
        },
        {
            "left": "re",
            "right": "at",
            "result": "reat",
            "rank": 311
        },
        {
            "left": "w",
            "right": "ord",
            "result": "word",
            "rank": 312
        },
        {
            "left": "I",
            "right": "S",
            "result": "IS",
            "rank": 313
        },
        {
            "left": "f",
            "right": "ri",
            "result": "fri",
            "rank": 314
        },
        {
            "left": "I",
            "right": "f",
            "result": "If",
            "rank": 315
        },
        {
            "left": "s",
            "right": "p",
            "result": "sp",
            "rank": 316
        },
        {
            "left": "w",
            "right": "hen",
            "result": "when",
            "rank": 317
        },
        {
            "left": "e",
            "right": "st",
            "result": "est",
            "rank": 318
        },
        {
            "left": "m",
            "right": "en",
            "result": "men",
            "rank": 319
        },
        {
            "left": "spe",
            "right": "ak",
            "result": "speak",
            "rank": 320
        },
        {
            "left": "ent",
            "right": "le",
            "result": "entle",
            "rank": 321
        },
        {
            "left": "I",
            "right": "n",
            "result": "In",
            "rank": 322
        },
        {
            "left": "ag",
            "right": "ain",
            "result": "again",
            "rank": 323
        },
        {
            "left": "he",
            "right": "art",
            "result": "heart",
            "rank": 324
        },
        {
            "left": "IC",
            "right": "H",
            "result": "ICH",
            "rank": 325
        },
        {
            "left": "R",
            "right": "ICH",
            "result": "RICH",
            "rank": 326
        },
        {
            "left": "v",
            "right": "i",
            "result": "vi",
            "rank": 327
        },
        {
            "left": "f",
            "right": "ul",
            "result": "ful",
            "rank": 328
        },
        {
            "left": "D",
            "right": "U",
            "result": "DU",
            "rank": 329
        },
        {
            "left": "DU",
            "right": "KE",
            "result": "DUKE",
            "rank": 330
        },
        {
            "left": "h",
            "right": "and",
            "result": "hand",
            "rank": 331
        },
        {
            "left": "y",
            "right": "et",
            "result": "yet",
            "rank": 332
        },
        {
            "left": "o",
            "right": "ld",
            "result": "old",
            "rank": 333
        },
        {
            "left": "m",
            "right": "ar",
            "result": "mar",
            "rank": 334
        },
        {
            "left": "e",
            "right": "l",
            "result": "el",
            "rank": 335
        },
        {
            "left": "Th",
            "right": "ou",
            "result": "Thou",
            "rank": 336
        },
        {
            "left": "ver",
            "right": "y",
            "result": "very",
            "rank": 337
        },
        {
            "left": "m",
            "right": "ine",
            "result": "mine",
            "rank": 338
        },
        {
            "left": "U",
            "right": "L",
            "result": "UL",
            "rank": 339
        },
        {
            "left": "th",
            "right": "ink",
            "result": "think",
            "rank": 340
        },
        {
            "left": "RICH",
            "right": "ARD",
            "result": "RICHARD",
            "rank": 341
        },
        {
            "left": "EN",
            "right": "TIO",
            "result": "ENTIO",
            "rank": 342
        },
        {
            "left": "ta",
            "right": "ke",
            "result": "take",
            "rank": 343
        },
        {
            "left": "p",
            "right": "l",
            "result": "pl",
            "rank": 344
        },
        {
            "left": "W",
            "right": "hich",
            "result": "Which",
            "rank": 345
        },
        {
            "left": "s",
            "right": "i",
            "result": "si",
            "rank": 346
        },
        {
            "left": "s",
            "right": "we",
            "result": "swe",
            "rank": 347
        },
        {
            "left": "a",
            "right": "c",
            "result": "ac",
            "rank": 348
        },
        {
            "left": "Go",
            "right": "d",
            "result": "God",
            "rank": 349
        },
        {
            "left": "he",
            "right": "ar",
            "result": "hear",
            "rank": 350
        },
        {
            "left": "B",
            "right": "e",
            "result": "Be",
            "rank": 351
        },
        {
            "left": "W",
            "right": "ith",
            "result": "With",
            "rank": 352
        },
        {
            "left": "in",
            "right": "ce",
            "result": "ince",
            "rank": 353
        },
        {
            "left": "IN",
            "right": "C",
            "result": "INC",
            "rank": 354
        },
        {
            "left": "st",
            "right": "r",
            "result": "str",
            "rank": 355
        },
        {
            "left": "ig",
            "right": "n",
            "result": "ign",
            "rank": 356
        },
        {
            "left": "W",
            "right": "hy",
            "result": "Why",
            "rank": 357
        },
        {
            "left": "g",
            "right": "ive",
            "result": "give",
            "rank": 358
        },
        {
            "left": "O",
            "right": "f",
            "result": "Of",
            "rank": 359
        },
        {
            "left": "n",
            "right": "a",
            "result": "na",
            "rank": 360
        },
        {
            "left": "su",
            "right": "ch",
            "result": "such",
            "rank": 361
        },
        {
            "left": "F",
            "right": "irst",
            "result": "First",
            "rank": 362
        },
        {
            "left": "l",
            "right": "and",
            "result": "land",
            "rank": 363
        },
        {
            "left": "an",
            "right": "g",
            "result": "ang",
            "rank": 364
        },
        {
            "left": "n",
            "right": "ess",
            "result": "ness",
            "rank": 365
        },
        {
            "left": "mo",
            "right": "st",
            "result": "most",
            "rank": 366
        },
        {
            "left": "bl",
            "right": "ood",
            "result": "blood",
            "rank": 367
        },
        {
            "left": "u",
            "right": "ch",
            "result": "uch",
            "rank": 368
        },
        {
            "left": "A",
            "right": "B",
            "result": "AB",
            "rank": 369
        },
        {
            "left": "e",
            "right": "x",
            "result": "ex",
            "rank": 370
        },
        {
            "left": "d",
            "right": "es",
            "result": "des",
            "rank": 371
        },
        {
            "left": "st",
            "right": "er",
            "result": "ster",
            "rank": 372
        },
        {
            "left": "bro",
            "right": "ther",
            "result": "brother",
            "rank": 373
        },
        {
            "left": "the",
            "right": "se",
            "result": "these",
            "rank": 374
        },
        {
            "left": "te",
            "right": "ll",
            "result": "tell",
            "rank": 375
        },
        {
            "left": "he",
            "right": "a",
            "result": "hea",
            "rank": 376
        },
        {
            "left": "b",
            "right": "r",
            "result": "br",
            "rank": 377
        },
        {
            "left": "an",
            "right": "y",
            "result": "any",
            "rank": 378
        },
        {
            "left": "is",
            "right": "e",
            "result": "ise",
            "rank": 379
        },
        {
            "left": "e",
            "right": "y",
            "result": "ey",
            "rank": 380
        },
        {
            "left": "b",
            "right": "a",
            "result": "ba",
            "rank": 381
        },
        {
            "left": "on",
            "right": "our",
            "result": "onour",
            "rank": 382
        },
        {
            "left": "U",
            "right": "E",
            "result": "UE",
            "rank": 383
        },
        {
            "left": "b",
            "right": "re",
            "result": "bre",
            "rank": 384
        },
        {
            "left": "o",
            "right": "ther",
            "result": "other",
            "rank": 385
        },
        {
            "left": "i",
            "right": "m",
            "result": "im",
            "rank": 386
        },
        {
            "left": "w",
            "right": "here",
            "result": "where",
            "rank": 387
        },
        {
            "left": "ll",
            "right": "ow",
            "result": "llow",
            "rank": 388
        },
        {
            "left": "H",
            "right": "ow",
            "result": "How",
            "rank": 389
        },
        {
            "left": "q",
            "right": "ue",
            "result": "que",
            "rank": 390
        },
        {
            "left": "C",
            "right": "ome",
            "result": "Come",
            "rank": 391
        },
        {
            "left": "l",
            "right": "ess",
            "result": "less",
            "rank": 392
        },
        {
            "left": "t",
            "right": "y",
            "result": "ty",
            "rank": 393
        },
        {
            "left": "ar",
            "right": "m",
            "result": "arm",
            "rank": 394
        },
        {
            "left": "li",
            "right": "fe",
            "result": "life",
            "rank": 395
        },
        {
            "left": "c",
            "right": "oun",
            "result": "coun",
            "rank": 396
        },
        {
            "left": "T",
            "right": "his",
            "result": "This",
            "rank": 397
        },
        {
            "left": "ES",
            "right": "T",
            "result": "EST",
            "rank": 398
        },
        {
            "left": "l",
            "right": "ook",
            "result": "look",
            "rank": 399
        },
        {
            "left": "ne",
            "right": "w",
            "result": "new",
            "rank": 400
        },
        {
            "left": "or",
            "right": "t",
            "result": "ort",
            "rank": 401
        },
        {
            "left": "S",
            "right": "o",
            "result": "So",
            "rank": 402
        },
        {
            "left": "UC",
            "right": "H",
            "result": "UCH",
            "rank": 403
        },
        {
            "left": "fri",
            "right": "end",
            "result": "friend",
            "rank": 404
        },
        {
            "left": "W",
            "right": "ho",
            "result": "Who",
            "rank": 405
        },
        {
            "left": "ou",
            "right": "l",
            "result": "oul",
            "rank": 406
        },
        {
            "left": "g",
            "right": "entle",
            "result": "gentle",
            "rank": 407
        },
        {
            "left": "u",
            "right": "ght",
            "result": "ught",
            "rank": 408
        },
        {
            "left": "v",
            "right": "o",
            "result": "vo",
            "rank": 409
        },
        {
            "left": "G",
            "right": "LO",
            "result": "GLO",
            "rank": 410
        },
        {
            "left": "GLO",
            "right": "UC",
            "result": "GLOUC",
            "rank": 411
        },
        {
            "left": "GLOUC",
            "right": "EST",
            "result": "GLOUCEST",
            "rank": 412
        },
        {
            "left": "GLOUCEST",
            "right": "ER",
            "result": "GLOUCESTER",
            "rank": 413
        },
        {
            "left": "c",
            "right": "hi",
            "result": "chi",
            "rank": 414
        },
        {
            "left": "ar",
            "right": "s",
            "result": "ars",
            "rank": 415
        },
        {
            "left": "a",
            "right": "f",
            "result": "af",
            "rank": 416
        },
        {
            "left": "m",
            "right": "is",
            "result": "mis",
            "rank": 417
        },
        {
            "left": "v",
            "right": "ing",
            "result": "ving",
            "rank": 418
        },
        {
            "left": "ad",
            "right": "y",
            "result": "ady",
            "rank": 419
        },
        {
            "left": "ha",
            "right": "st",
            "result": "hast",
            "rank": 420
        },
        {
            "left": "L",
            "right": "ord",
            "result": "Lord",
            "rank": 421
        },
        {
            "left": "a",
            "right": "b",
            "result": "ab",
            "rank": 422
        },
        {
            "left": "ur",
            "right": "se",
            "result": "urse",
            "rank": 423
        },
        {
            "left": "t",
            "right": "s",
            "result": "ts",
            "rank": 424
        },
        {
            "left": "R",
            "right": "ome",
            "result": "Rome",
            "rank": 425
        },
        {
            "left": "n",
            "right": "ight",
            "result": "night",
            "rank": 426
        },
        {
            "left": "of",
            "right": "f",
            "result": "off",
            "rank": 427
        },
        {
            "left": "r",
            "right": "own",
            "result": "rown",
            "rank": 428
        },
        {
            "left": "fa",
            "right": "ir",
            "result": "fair",
            "rank": 429
        },
        {
            "left": "R",
            "right": "Y",
            "result": "RY",
            "rank": 430
        },
        {
            "left": "ma",
            "right": "de",
            "result": "made",
            "rank": 431
        },
        {
            "left": "a",
            "right": "ge",
            "result": "age",
            "rank": 432
        },
        {
            "left": "'",
            "right": "st",
            "result": "'st",
            "rank": 433
        },
        {
            "left": "L",
            "right": "E",
            "result": "LE",
            "rank": 434
        },
        {
            "left": "Q",
            "right": "UE",
            "result": "QUE",
            "rank": 435
        },
        {
            "left": "QUE",
            "right": "EN",
            "result": "QUEEN",
            "rank": 436
        },
        {
            "left": "V",
            "right": "INC",
            "result": "VINC",
            "rank": 437
        },
        {
            "left": "VINC",
            "right": "ENTIO",
            "result": "VINCENTIO",
            "rank": 438
        },
        {
            "left": "h",
            "right": "onour",
            "result": "honour",
            "rank": 439
        },
        {
            "left": "S",
            "right": "e",
            "result": "Se",
            "rank": 440
        },
        {
            "left": "an",
            "right": "s",
            "result": "ans",
            "rank": 441
        },
        {
            "left": "ti",
            "right": "on",
            "result": "tion",
            "rank": 442
        },
        {
            "left": "m",
            "right": "uch",
            "result": "much",
            "rank": 443
        },
        {
            "left": "O",
            "right": "F",
            "result": "OF",
            "rank": 444
        },
        {
            "left": "on",
            "right": "d",
            "result": "ond",
            "rank": 445
        },
        {
            "left": "I",
            "right": "s",
            "result": "Is",
            "rank": 446
        },
        {
            "left": "li",
            "right": "e",
            "result": "lie",
            "rank": 447
        },
        {
            "left": "W",
            "right": "here",
            "result": "Where",
            "rank": 448
        },
        {
            "left": "ur",
            "right": "n",
            "result": "urn",
            "rank": 449
        },
        {
            "left": "U",
            "right": "M",
            "result": "UM",
            "rank": 450
        },
        {
            "left": "L",
            "right": "AN",
            "result": "LAN",
            "rank": 451
        },
        {
            "left": "M",
            "right": "ar",
            "result": "Mar",
            "rank": 452
        },
        {
            "left": "p",
            "right": "re",
            "result": "pre",
            "rank": 453
        },
        {
            "left": "st",
            "right": "and",
            "result": "stand",
            "rank": 454
        },
        {
            "left": "con",
            "right": "d",
            "result": "cond",
            "rank": 455
        },
        {
            "left": "H",
            "right": "EN",
            "result": "HEN",
            "rank": 456
        },
        {
            "left": "'t",
            "right": "is",
            "result": "'tis",
            "rank": 457
        },
        {
            "left": "N",
            "right": "ow",
            "result": "Now",
            "rank": 458
        },
        {
            "left": "c",
            "right": "he",
            "result": "che",
            "rank": 459
        },
        {
            "left": "na",
            "right": "me",
            "result": "name",
            "rank": 460
        },
        {
            "left": "t",
            "right": "le",
            "result": "tle",
            "rank": 461
        },
        {
            "left": "e",
            "right": "m",
            "result": "em",
            "rank": 462
        },
        {
            "left": "e",
            "right": "f",
            "result": "ef",
            "rank": 463
        },
        {
            "left": "HEN",
            "right": "RY",
            "result": "HENRY",
            "rank": 464
        },
        {
            "left": "n",
            "right": "g",
            "result": "ng",
            "rank": 465
        },
        {
            "left": "p",
            "right": "art",
            "result": "part",
            "rank": 466
        },
        {
            "left": "ne",
            "right": "ver",
            "result": "never",
            "rank": 467
        },
        {
            "left": "b",
            "right": "er",
            "result": "ber",
            "rank": 468
        },
        {
            "left": "fe",
            "right": "ar",
            "result": "fear",
            "rank": 469
        },
        {
            "left": "i",
            "right": "o",
            "result": "io",
            "rank": 470
        },
        {
            "left": "i",
            "right": "es",
            "result": "ies",
            "rank": 471
        },
        {
            "left": "c",
            "right": "es",
            "result": "ces",
            "rank": 472
        },
        {
            "left": "Y",
            "right": "our",
            "result": "Your",
            "rank": 473
        },
        {
            "left": "li",
            "right": "ve",
            "result": "live",
            "rank": 474
        },
        {
            "left": "l",
            "right": "t",
            "result": "lt",
            "rank": 475
        },
        {
            "left": "ow",
            "right": "er",
            "result": "ower",
            "rank": 476
        },
        {
            "left": "s",
            "right": "er",
            "result": "ser",
            "rank": 477
        },
        {
            "left": "j",
            "right": "o",
            "result": "jo",
            "rank": 478
        },
        {
            "left": "u",
            "right": "ke",
            "result": "uke",
            "rank": 479
        },
        {
            "left": "I",
            "right": "t",
            "result": "It",
            "rank": 480
        },
        {
            "left": "g",
            "right": "reat",
            "result": "great",
            "rank": 481
        },
        {
            "left": "c",
            "right": "all",
            "result": "call",
            "rank": 482
        },
        {
            "left": "as",
            "right": "s",
            "result": "ass",
            "rank": 483
        },
        {
            "left": "o",
            "right": "'",
            "result": "o'",
            "rank": 484
        },
        {
            "left": "f",
            "right": "o",
            "result": "fo",
            "rank": 485
        },
        {
            "left": "he",
            "right": "ad",
            "result": "head",
            "rank": 486
        },
        {
            "left": "Y",
            "right": "OR",
            "result": "YOR",
            "rank": 487
        },
        {
            "left": "YOR",
            "right": "K",
            "result": "YORK",
            "rank": 488
        },
        {
            "left": "re",
            "right": "e",
            "result": "ree",
            "rank": 489
        },
        {
            "left": "u",
            "right": "nd",
            "result": "und",
            "rank": 490
        },
        {
            "left": "m",
            "right": "ent",
            "result": "ment",
            "rank": 491
        },
        {
            "left": "at",
            "right": "ion",
            "result": "ation",
            "rank": 492
        },
        {
            "left": "O",
            "right": "r",
            "result": "Or",
            "rank": 493
        },
        {
            "left": "IN",
            "right": "IUS",
            "result": "INIUS",
            "rank": 494
        },
        {
            "left": "can",
            "right": "not",
            "result": "cannot",
            "rank": 495
        },
        {
            "left": "pr",
            "right": "ay",
            "result": "pray",
            "rank": 496
        },
        {
            "left": "e",
            "right": "ver",
            "result": "ever",
            "rank": 497
        },
        {
            "left": "hea",
            "right": "ven",
            "result": "heaven",
            "rank": 498
        },
        {
            "left": "re",
            "right": "d",
            "result": "red",
            "rank": 499
        },
        {
            "left": "tr",
            "right": "ue",
            "result": "true",
            "rank": 500
        },
        {
            "left": "a",
            "right": "se",
            "result": "ase",
            "rank": 501
        },
        {
            "left": "no",
            "right": "ble",
            "result": "noble",
            "rank": 502
        },
        {
            "left": "P",
            "right": "ET",
            "result": "PET",
            "rank": 503
        },
        {
            "left": "f",
            "right": "l",
            "result": "fl",
            "rank": 504
        },
        {
            "left": "p",
            "right": "a",
            "result": "pa",
            "rank": 505
        },
        {
            "left": "be",
            "right": "en",
            "result": "been",
            "rank": 506
        },
        {
            "left": "swe",
            "right": "et",
            "result": "sweet",
            "rank": 507
        },
        {
            "left": "for",
            "right": "t",
            "result": "fort",
            "rank": 508
        },
        {
            "left": "c",
            "right": "o",
            "result": "co",
            "rank": 509
        },
        {
            "left": "'",
            "right": "T",
            "result": "'T",
            "rank": 510
        },
        {
            "left": "A",
            "right": "n",
            "result": "An",
            "rank": 511
        },
        {
            "left": "E",
            "right": "D",
            "result": "ED",
            "rank": 512
        },
        {
            "left": "ED",
            "right": "W",
            "result": "EDW",
            "rank": 513
        },
        {
            "left": "EDW",
            "right": "ARD",
            "result": "EDWARD",
            "rank": 514
        },
        {
            "left": "d",
            "right": "one",
            "result": "done",
            "rank": 515
        },
        {
            "left": "m",
            "right": "er",
            "result": "mer",
            "rank": 516
        },
        {
            "left": "be",
            "right": "t",
            "result": "bet",
            "rank": 517
        },
        {
            "left": "G",
            "right": "R",
            "result": "GR",
            "rank": 518
        },
        {
            "left": ",",
            "right": "--",
            "result": ",--",
            "rank": 519
        },
        {
            "left": "do",
            "right": "th",
            "result": "doth",
            "rank": 520
        },
        {
            "left": "T",
            "right": "H",
            "result": "TH",
            "rank": 521
        },
        {
            "left": "i",
            "right": "z",
            "result": "iz",
            "rank": 522
        },
        {
            "left": "ou",
            "right": "gh",
            "result": "ough",
            "rank": 523
        },
        {
            "left": "n",
            "right": "or",
            "result": "nor",
            "rank": 524
        },
        {
            "left": "r",
            "right": "es",
            "result": "res",
            "rank": 525
        },
        {
            "left": "M",
            "right": "EN",
            "result": "MEN",
            "rank": 526
        },
        {
            "left": "p",
            "right": "t",
            "result": "pt",
            "rank": 527
        },
        {
            "left": "L",
            "right": "UC",
            "result": "LUC",
            "rank": 528
        },
        {
            "left": "p",
            "right": "p",
            "result": "pp",
            "rank": 529
        },
        {
            "left": "d",
            "right": "a",
            "result": "da",
            "rank": 530
        },
        {
            "left": "ou",
            "right": "se",
            "result": "ouse",
            "rank": 531
        },
        {
            "left": "A",
            "right": "y",
            "result": "Ay",
            "rank": 532
        },
        {
            "left": "w",
            "right": "ar",
            "result": "war",
            "rank": 533
        },
        {
            "left": "u",
            "right": "ll",
            "result": "ull",
            "rank": 534
        },
        {
            "left": "i",
            "right": "e",
            "result": "ie",
            "rank": 535
        },
        {
            "left": "com",
            "right": "m",
            "result": "comm",
            "rank": 536
        },
        {
            "left": "T",
            "right": "here",
            "result": "There",
            "rank": 537
        },
        {
            "left": "in",
            "right": "t",
            "result": "int",
            "rank": 538
        },
        {
            "left": "g",
            "right": "r",
            "result": "gr",
            "rank": 539
        },
        {
            "left": "re",
            "right": "st",
            "result": "rest",
            "rank": 540
        },
        {
            "left": "W",
            "right": "hen",
            "result": "When",
            "rank": 541
        },
        {
            "left": "E",
            "right": "d",
            "result": "Ed",
            "rank": 542
        },
        {
            "left": "be",
            "right": "ar",
            "result": "bear",
            "rank": 543
        },
        {
            "left": "w",
            "right": "r",
            "result": "wr",
            "rank": 544
        },
        {
            "left": "gra",
            "right": "ce",
            "result": "grace",
            "rank": 545
        },
        {
            "left": "U",
            "right": "T",
            "result": "UT",
            "rank": 546
        },
        {
            "left": "M",
            "right": "E",
            "result": "ME",
            "rank": 547
        },
        {
            "left": "be",
            "right": "fore",
            "result": "before",
            "rank": 548
        },
        {
            "left": "s",
            "right": "oul",
            "result": "soul",
            "rank": 549
        },
        {
            "left": "Ed",
            "right": "ward",
            "result": "Edward",
            "rank": 550
        },
        {
            "left": "RO",
            "right": "ME",
            "result": "ROME",
            "rank": 551
        },
        {
            "left": "ROME",
            "right": "O",
            "result": "ROMEO",
            "rank": 552
        },
        {
            "left": "MEN",
            "right": "EN",
            "result": "MENEN",
            "rank": 553
        },
        {
            "left": "MENEN",
            "right": "IUS",
            "result": "MENENIUS",
            "rank": 554
        },
        {
            "left": "wor",
            "right": "ld",
            "result": "world",
            "rank": 555
        },
        {
            "left": "B",
            "right": "y",
            "result": "By",
            "rank": 556
        },
        {
            "left": "bo",
            "right": "th",
            "result": "both",
            "rank": 557
        },
        {
            "left": "s",
            "right": "s",
            "result": "ss",
            "rank": 558
        },
        {
            "left": "s",
            "right": "c",
            "result": "sc",
            "rank": 559
        },
        {
            "left": "que",
            "right": "en",
            "result": "queen",
            "rank": 560
        },
        {
            "left": "R",
            "right": "i",
            "result": "Ri",
            "rank": 561
        },
        {
            "left": "a",
            "right": "ce",
            "result": "ace",
            "rank": 562
        },
        {
            "left": "L",
            "right": "et",
            "result": "Let",
            "rank": 563
        },
        {
            "left": "come",
            "right": "s",
            "result": "comes",
            "rank": 564
        },
        {
            "left": "H",
            "right": "ere",
            "result": "Here",
            "rank": 565
        },
        {
            "left": "Th",
            "right": "en",
            "result": "Then",
            "rank": 566
        },
        {
            "left": "ught",
            "right": "er",
            "result": "ughter",
            "rank": 567
        },
        {
            "left": "or",
            "right": "n",
            "result": "orn",
            "rank": 568
        },
        {
            "left": "p",
            "right": "ri",
            "result": "pri",
            "rank": 569
        },
        {
            "left": "d",
            "right": "own",
            "result": "down",
            "rank": 570
        },
        {
            "left": "de",
            "right": "ad",
            "result": "dead",
            "rank": 571
        },
        {
            "left": "PET",
            "right": "R",
            "result": "PETR",
            "rank": 572
        },
        {
            "left": "PETR",
            "right": "UCH",
            "result": "PETRUCH",
            "rank": 573
        },
        {
            "left": "PETRUCH",
            "right": "IO",
            "result": "PETRUCHIO",
            "rank": 574
        },
        {
            "left": "ing",
            "right": "s",
            "result": "ings",
            "rank": 575
        },
        {
            "left": "O",
            "right": "M",
            "result": "OM",
            "rank": 576
        },
        {
            "left": "ve",
            "right": "d",
            "result": "ved",
            "rank": 577
        },
        {
            "left": "it",
            "right": "e",
            "result": "ite",
            "rank": 578
        },
        {
            "left": "l",
            "right": "ong",
            "result": "long",
            "rank": 579
        },
        {
            "left": "pr",
            "right": "es",
            "result": "pres",
            "rank": 580
        },
        {
            "left": "T",
            "right": "ES",
            "result": "TES",
            "rank": 581
        },
        {
            "left": "a",
            "right": "ke",
            "result": "ake",
            "rank": 582
        },
        {
            "left": "i",
            "right": "ce",
            "result": "ice",
            "rank": 583
        },
        {
            "left": "be",
            "right": "ing",
            "result": "being",
            "rank": 584
        },
        {
            "left": "Th",
            "right": "an",
            "result": "Than",
            "rank": 585
        },
        {
            "left": "wi",
            "right": "ck",
            "result": "wick",
            "rank": 586
        },
        {
            "left": "mo",
            "right": "ther",
            "result": "mother",
            "rank": 587
        },
        {
            "left": "le",
            "right": "ave",
            "result": "leave",
            "rank": 588
        },
        {
            "left": "r",
            "right": "u",
            "result": "ru",
            "rank": 589
        },
        {
            "left": "ho",
            "right": "ld",
            "result": "hold",
            "rank": 590
        },
        {
            "left": "my",
            "right": "self",
            "result": "myself",
            "rank": 591
        },
        {
            "left": "or",
            "right": "e",
            "result": "ore",
            "rank": 592
        },
        {
            "left": "M",
            "right": "AR",
            "result": "MAR",
            "rank": 593
        },
        {
            "left": "se",
            "right": "t",
            "result": "set",
            "rank": 594
        },
        {
            "left": "C",
            "right": "l",
            "result": "Cl",
            "rank": 595
        },
        {
            "left": "H",
            "right": "A",
            "result": "HA",
            "rank": 596
        },
        {
            "left": "c",
            "right": "our",
            "result": "cour",
            "rank": 597
        },
        {
            "left": "th",
            "right": "us",
            "result": "thus",
            "rank": 598
        },
        {
            "left": "ca",
            "right": "use",
            "result": "cause",
            "rank": 599
        },
        {
            "left": "h",
            "right": "ouse",
            "result": "house",
            "rank": 600
        },
        {
            "left": "p",
            "right": "ut",
            "result": "put",
            "rank": 601
        },
        {
            "left": "o",
            "right": "p",
            "result": "op",
            "rank": 602
        },
        {
            "left": "re",
            "right": "t",
            "result": "ret",
            "rank": 603
        },
        {
            "left": "C",
            "right": "OR",
            "result": "COR",
            "rank": 604
        },
        {
            "left": "COR",
            "right": "IO",
            "result": "CORIO",
            "rank": 605
        },
        {
            "left": "CORIO",
            "right": "LAN",
            "result": "CORIOLAN",
            "rank": 606
        },
        {
            "left": "CORIOLAN",
            "right": "US",
            "result": "CORIOLANUS",
            "rank": 607
        },
        {
            "left": "I",
            "right": "Z",
            "result": "IZ",
            "rank": 608
        },
        {
            "left": "Se",
            "right": "cond",
            "result": "Second",
            "rank": 609
        },
        {
            "left": "t",
            "right": "ri",
            "result": "tri",
            "rank": 610
        },
        {
            "left": "N",
            "right": "or",
            "result": "Nor",
            "rank": 611
        },
        {
            "left": "wi",
            "right": "fe",
            "result": "wife",
            "rank": 612
        },
        {
            "left": "w",
            "right": "hi",
            "result": "whi",
            "rank": 613
        },
        {
            "left": "ey",
            "right": "es",
            "result": "eyes",
            "rank": 614
        },
        {
            "left": "u",
            "right": "ck",
            "result": "uck",
            "rank": 615
        },
        {
            "left": "be",
            "right": "g",
            "result": "beg",
            "rank": 616
        },
        {
            "left": "d",
            "right": "er",
            "result": "der",
            "rank": 617
        },
        {
            "left": "de",
            "right": "ed",
            "result": "deed",
            "rank": 618
        },
        {
            "left": "thou",
            "right": "ght",
            "result": "thought",
            "rank": 619
        },
        {
            "left": "c",
            "right": "l",
            "result": "cl",
            "rank": 620
        },
        {
            "left": "Ri",
            "right": "ch",
            "result": "Rich",
            "rank": 621
        },
        {
            "left": "B",
            "right": "A",
            "result": "BA",
            "rank": 622
        },
        {
            "left": "d",
            "right": "y",
            "result": "dy",
            "rank": 623
        },
        {
            "left": "chi",
            "right": "ld",
            "result": "child",
            "rank": 624
        },
        {
            "left": "po",
            "right": "or",
            "result": "poor",
            "rank": 625
        },
        {
            "left": "IN",
            "right": "A",
            "result": "INA",
            "rank": 626
        },
        {
            "left": "it",
            "right": "iz",
            "result": "itiz",
            "rank": 627
        },
        {
            "left": "itiz",
            "right": "en",
            "result": "itizen",
            "rank": 628
        },
        {
            "left": "di",
            "right": "e",
            "result": "die",
            "rank": 629
        },
        {
            "left": "S",
            "right": "he",
            "result": "She",
            "rank": 630
        },
        {
            "left": "D",
            "right": "o",
            "result": "Do",
            "rank": 631
        },
        {
            "left": "le",
            "right": "d",
            "result": "led",
            "rank": 632
        },
        {
            "left": "f",
            "right": "oo",
            "result": "foo",
            "rank": 633
        },
        {
            "left": "t",
            "right": "ra",
            "result": "tra",
            "rank": 634
        },
        {
            "left": "a",
            "right": "way",
            "result": "away",
            "rank": 635
        },
        {
            "left": "friend",
            "right": "s",
            "result": "friends",
            "rank": 636
        },
        {
            "left": "ri",
            "right": "ght",
            "result": "right",
            "rank": 637
        },
        {
            "left": "I",
            "right": "V",
            "result": "IV",
            "rank": 638
        },
        {
            "left": "d",
            "right": "s",
            "result": "ds",
            "rank": 639
        },
        {
            "left": "II",
            "right": "I",
            "result": "III",
            "rank": 640
        },
        {
            "left": "m",
            "right": "ight",
            "result": "might",
            "rank": 641
        },
        {
            "left": "S",
            "right": "ir",
            "result": "Sir",
            "rank": 642
        },
        {
            "left": "st",
            "right": "ay",
            "result": "stay",
            "rank": 643
        },
        {
            "left": "at",
            "right": "ter",
            "result": "atter",
            "rank": 644
        },
        {
            "left": "c",
            "right": "rown",
            "result": "crown",
            "rank": 645
        },
        {
            "left": "k",
            "right": "s",
            "result": "ks",
            "rank": 646
        },
        {
            "left": "p",
            "right": "la",
            "result": "pla",
            "rank": 647
        },
        {
            "left": "at",
            "right": "ch",
            "result": "atch",
            "rank": 648
        },
        {
            "left": "li",
            "right": "ght",
            "result": "light",
            "rank": 649
        },
        {
            "left": "t",
            "right": "en",
            "result": "ten",
            "rank": 650
        },
        {
            "left": "man",
            "right": "y",
            "result": "many",
            "rank": 651
        },
        {
            "left": "b",
            "right": "id",
            "result": "bid",
            "rank": 652
        },
        {
            "left": "f",
            "right": "t",
            "result": "ft",
            "rank": 653
        },
        {
            "left": "in",
            "right": "s",
            "result": "ins",
            "rank": 654
        },
        {
            "left": "W",
            "right": "ar",
            "result": "War",
            "rank": 655
        },
        {
            "left": "War",
            "right": "wick",
            "result": "Warwick",
            "rank": 656
        },
        {
            "left": "g",
            "right": "ri",
            "result": "gri",
            "rank": 657
        },
        {
            "left": "l",
            "right": "it",
            "result": "lit",
            "rank": 658
        },
        {
            "left": "a",
            "right": "ch",
            "result": "ach",
            "rank": 659
        },
        {
            "left": "t",
            "right": "re",
            "result": "tre",
            "rank": 660
        },
        {
            "left": "H",
            "right": "is",
            "result": "His",
            "rank": 661
        },
        {
            "left": "p",
            "right": "s",
            "result": "ps",
            "rank": 662
        },
        {
            "left": "'T",
            "right": "is",
            "result": "'Tis",
            "rank": 663
        },
        {
            "left": "is",
            "right": "on",
            "result": "ison",
            "rank": 664
        },
        {
            "left": "ci",
            "right": "ous",
            "result": "cious",
            "rank": 665
        },
        {
            "left": "po",
            "right": "se",
            "result": "pose",
            "rank": 666
        },
        {
            "left": "IS",
            "right": "AB",
            "result": "ISAB",
            "rank": 667
        },
        {
            "left": "ISAB",
            "right": "EL",
            "result": "ISABEL",
            "rank": 668
        },
        {
            "left": "ISABEL",
            "right": "LA",
            "result": "ISABELLA",
            "rank": 669
        },
        {
            "left": "m",
            "right": "i",
            "result": "mi",
            "rank": 670
        },
        {
            "left": "an",
            "right": "ge",
            "result": "ange",
            "rank": 671
        },
        {
            "left": "da",
            "right": "ughter",
            "result": "daughter",
            "rank": 672
        },
        {
            "left": "no",
            "right": "thing",
            "result": "nothing",
            "rank": 673
        },
        {
            "left": "Rome",
            "right": "o",
            "result": "Romeo",
            "rank": 674
        },
        {
            "left": "t",
            "right": "al",
            "result": "tal",
            "rank": 675
        },
        {
            "left": "We",
            "right": "ll",
            "result": "Well",
            "rank": 676
        },
        {
            "left": "k",
            "right": "ind",
            "result": "kind",
            "rank": 677
        },
        {
            "left": "t",
            "right": "ong",
            "result": "tong",
            "rank": 678
        },
        {
            "left": "b",
            "right": "ra",
            "result": "bra",
            "rank": 679
        },
        {
            "left": "fa",
            "right": "ce",
            "result": "face",
            "rank": 680
        },
        {
            "left": "g",
            "right": "one",
            "result": "gone",
            "rank": 681
        },
        {
            "left": "R",
            "right": "AN",
            "result": "RAN",
            "rank": 682
        },
        {
            "left": "bet",
            "right": "ter",
            "result": "better",
            "rank": 683
        },
        {
            "left": "m",
            "right": "ad",
            "result": "mad",
            "rank": 684
        },
        {
            "left": "p",
            "right": "ar",
            "result": "par",
            "rank": 685
        },
        {
            "left": "k",
            "right": "es",
            "result": "kes",
            "rank": 686
        },
        {
            "left": "ti",
            "right": "ll",
            "result": "till",
            "rank": 687
        },
        {
            "left": ":\n",
            "right": "\n",
            "result": ":\n\n",
            "rank": 688
        },
        {
            "left": "o",
            "right": "se",
            "result": "ose",
            "rank": 689
        },
        {
            "left": "for",
            "right": "d",
            "result": "ford",
            "rank": 690
        },
        {
            "left": "J",
            "right": "UL",
            "result": "JUL",
            "rank": 691
        },
        {
            "left": "JUL",
            "right": "I",
            "result": "JULI",
            "rank": 692
        },
        {
            "left": "JULI",
            "right": "ET",
            "result": "JULIET",
            "rank": 693
        },
        {
            "left": "LE",
            "right": "ON",
            "result": "LEON",
            "rank": 694
        },
        {
            "left": "LEON",
            "right": "TES",
            "result": "LEONTES",
            "rank": 695
        },
        {
            "left": "g",
            "right": "u",
            "result": "gu",
            "rank": 696
        },
        {
            "left": "N",
            "right": "ay",
            "result": "Nay",
            "rank": 697
        },
        {
            "left": "thou",
            "right": "gh",
            "result": "though",
            "rank": 698
        },
        {
            "left": "word",
            "right": "s",
            "result": "words",
            "rank": 699
        },
        {
            "left": "en",
            "right": "g",
            "result": "eng",
            "rank": 700
        },
        {
            "left": "V",
            "right": "I",
            "result": "VI",
            "rank": 701
        },
        {
            "left": "pr",
            "right": "ince",
            "result": "prince",
            "rank": 702
        },
        {
            "left": "t",
            "right": "ed",
            "result": "ted",
            "rank": 703
        },
        {
            "left": "I",
            "right": "L",
            "result": "IL",
            "rank": 704
        },
        {
            "left": "or",
            "right": "s",
            "result": "ors",
            "rank": 705
        },
        {
            "left": "a",
            "right": "ble",
            "result": "able",
            "rank": 706
        },
        {
            "left": "ear",
            "right": "s",
            "result": "ears",
            "rank": 707
        },
        {
            "left": "un",
            "right": "e",
            "result": "une",
            "rank": 708
        },
        {
            "left": "LA",
            "right": "D",
            "result": "LAD",
            "rank": 709
        },
        {
            "left": "LAD",
            "right": "Y",
            "result": "LADY",
            "rank": 710
        },
        {
            "left": "sh",
            "right": "ow",
            "result": "show",
            "rank": 711
        },
        {
            "left": "w",
            "right": "er",
            "result": "wer",
            "rank": 712
        },
        {
            "left": "V",
            "right": "OL",
            "result": "VOL",
            "rank": 713
        },
        {
            "left": "EN",
            "right": "C",
            "result": "ENC",
            "rank": 714
        },
        {
            "left": "ENC",
            "right": "E",
            "result": "ENCE",
            "rank": 715
        },
        {
            "left": "S",
            "right": "T",
            "result": "ST",
            "rank": 716
        },
        {
            "left": "t",
            "right": "end",
            "result": "tend",
            "rank": 717
        },
        {
            "left": "i",
            "right": "ther",
            "result": "ither",
            "rank": 718
        },
        {
            "left": "new",
            "right": "s",
            "result": "news",
            "rank": 719
        },
        {
            "left": "B",
            "right": "R",
            "result": "BR",
            "rank": 720
        },
        {
            "left": "b",
            "right": "an",
            "result": "ban",
            "rank": 721
        },
        {
            "left": "T",
            "right": "A",
            "result": "TA",
            "rank": 722
        },
        {
            "left": "C",
            "right": "itizen",
            "result": "Citizen",
            "rank": 723
        },
        {
            "left": "again",
            "right": "st",
            "result": "against",
            "rank": 724
        },
        {
            "left": "be",
            "right": "st",
            "result": "best",
            "rank": 725
        },
        {
            "left": "s",
            "right": "ent",
            "result": "sent",
            "rank": 726
        },
        {
            "left": "i",
            "right": "c",
            "result": "ic",
            "rank": 727
        },
        {
            "left": "ha",
            "right": "ll",
            "result": "hall",
            "rank": 728
        },
        {
            "left": "S",
            "right": "er",
            "result": "Ser",
            "rank": 729
        },
        {
            "left": "ur",
            "right": "der",
            "result": "urder",
            "rank": 730
        },
        {
            "left": "C",
            "right": "L",
            "result": "CL",
            "rank": 731
        },
        {
            "left": "jo",
            "right": "y",
            "result": "joy",
            "rank": 732
        },
        {
            "left": "th",
            "right": "ose",
            "result": "those",
            "rank": 733
        },
        {
            "left": "P",
            "right": "ro",
            "result": "Pro",
            "rank": 734
        },
        {
            "left": "lit",
            "right": "tle",
            "result": "little",
            "rank": 735
        },
        {
            "left": "S",
            "right": "IC",
            "result": "SIC",
            "rank": 736
        },
        {
            "left": "SIC",
            "right": "INIUS",
            "result": "SICINIUS",
            "rank": 737
        },
        {
            "left": "hen",
            "right": "ce",
            "result": "hence",
            "rank": 738
        },
        {
            "left": "b",
            "right": "and",
            "result": "band",
            "rank": 739
        },
        {
            "left": "h",
            "right": "our",
            "result": "hour",
            "rank": 740
        },
        {
            "left": "lord",
            "right": "s",
            "result": "lords",
            "rank": 741
        },
        {
            "left": "s",
            "right": "le",
            "result": "sle",
            "rank": 742
        },
        {
            "left": "t",
            "right": "ent",
            "result": "tent",
            "rank": 743
        },
        {
            "left": "'",
            "right": "er",
            "result": "'er",
            "rank": 744
        },
        {
            "left": "f",
            "right": "ar",
            "result": "far",
            "rank": 745
        },
        {
            "left": "c",
            "right": "tion",
            "result": "ction",
            "rank": 746
        },
        {
            "left": "c",
            "right": "y",
            "result": "cy",
            "rank": 747
        },
        {
            "left": "ard",
            "right": "on",
            "result": "ardon",
            "rank": 748
        },
        {
            "left": "p",
            "right": "ur",
            "result": "pur",
            "rank": 749
        },
        {
            "left": "U",
            "right": "n",
            "result": "Un",
            "rank": 750
        },
        {
            "left": "ke",
            "right": "ep",
            "result": "keep",
            "rank": 751
        },
        {
            "left": "de",
            "right": "ar",
            "result": "dear",
            "rank": 752
        },
        {
            "left": "he",
            "right": "l",
            "result": "hel",
            "rank": 753
        },
        {
            "left": "ch",
            "right": "ar",
            "result": "char",
            "rank": 754
        },
        {
            "left": "t",
            "right": "ain",
            "result": "tain",
            "rank": 755
        },
        {
            "left": "t",
            "right": "wo",
            "result": "two",
            "rank": 756
        },
        {
            "left": "st",
            "right": "ill",
            "result": "still",
            "rank": 757
        },
        {
            "left": "la",
            "right": "w",
            "result": "law",
            "rank": 758
        },
        {
            "left": "GR",
            "right": "E",
            "result": "GRE",
            "rank": 759
        },
        {
            "left": "him",
            "right": "self",
            "result": "himself",
            "rank": 760
        },
        {
            "left": "No",
            "right": "t",
            "result": "Not",
            "rank": 761
        },
        {
            "left": "for",
            "right": "th",
            "result": "forth",
            "rank": 762
        },
        {
            "left": "p",
            "right": "ower",
            "result": "power",
            "rank": 763
        },
        {
            "left": "d",
            "right": "en",
            "result": "den",
            "rank": 764
        },
        {
            "left": "me",
            "right": "an",
            "result": "mean",
            "rank": 765
        },
        {
            "left": "ro",
            "right": "y",
            "result": "roy",
            "rank": 766
        },
        {
            "left": "ba",
            "right": "ck",
            "result": "back",
            "rank": 767
        },
        {
            "left": "f",
            "right": "ull",
            "result": "full",
            "rank": 768
        },
        {
            "left": "Th",
            "right": "y",
            "result": "Thy",
            "rank": 769
        },
        {
            "left": "LUC",
            "right": "IO",
            "result": "LUCIO",
            "rank": 770
        },
        {
            "left": "it",
            "right": "s",
            "result": "its",
            "rank": 771
        },
        {
            "left": "un",
            "right": "to",
            "result": "unto",
            "rank": 772
        },
        {
            "left": "su",
            "right": "b",
            "result": "sub",
            "rank": 773
        },
        {
            "left": "Rich",
            "right": "ard",
            "result": "Richard",
            "rank": 774
        },
        {
            "left": "H",
            "right": "ave",
            "result": "Have",
            "rank": 775
        },
        {
            "left": "pe",
            "right": "ace",
            "result": "peace",
            "rank": 776
        },
        {
            "left": "e",
            "right": "ch",
            "result": "ech",
            "rank": 777
        },
        {
            "left": "there",
            "right": "fore",
            "result": "therefore",
            "rank": 778
        },
        {
            "left": "f",
            "right": "irst",
            "result": "first",
            "rank": 779
        },
        {
            "left": "r",
            "right": "en",
            "result": "ren",
            "rank": 780
        },
        {
            "left": "in",
            "right": "ess",
            "result": "iness",
            "rank": 781
        },
        {
            "left": "W",
            "right": "ill",
            "result": "Will",
            "rank": 782
        },
        {
            "left": "tong",
            "right": "ue",
            "result": "tongue",
            "rank": 783
        },
        {
            "left": "el",
            "right": "se",
            "result": "else",
            "rank": 784
        },
        {
            "left": "b",
            "right": "es",
            "result": "bes",
            "rank": 785
        },
        {
            "left": "c",
            "right": "ould",
            "result": "could",
            "rank": 786
        },
        {
            "left": "hi",
            "right": "gh",
            "result": "high",
            "rank": 787
        },
        {
            "left": "as",
            "right": "on",
            "result": "ason",
            "rank": 788
        },
        {
            "left": "ho",
            "right": "pe",
            "result": "hope",
            "rank": 789
        },
        {
            "left": "ri",
            "right": "ed",
            "result": "ried",
            "rank": 790
        },
        {
            "left": "Y",
            "right": "or",
            "result": "Yor",
            "rank": 791
        },
        {
            "left": "d",
            "right": "uke",
            "result": "duke",
            "rank": 792
        },
        {
            "left": "ne",
            "right": "ed",
            "result": "need",
            "rank": 793
        },
        {
            "left": "ou",
            "right": "ght",
            "result": "ought",
            "rank": 794
        },
        {
            "left": "h",
            "right": "us",
            "result": "hus",
            "rank": 795
        },
        {
            "left": "con",
            "right": "f",
            "result": "conf",
            "rank": 796
        },
        {
            "left": "ar",
            "right": "k",
            "result": "ark",
            "rank": 797
        },
        {
            "left": "c",
            "right": "ut",
            "result": "cut",
            "rank": 798
        },
        {
            "left": "n",
            "right": "at",
            "result": "nat",
            "rank": 799
        },
        {
            "left": "und",
            "right": "er",
            "result": "under",
            "rank": 800
        },
        {
            "left": "f",
            "right": "ind",
            "result": "find",
            "rank": 801
        },
        {
            "left": "th",
            "right": "ine",
            "result": "thine",
            "rank": 802
        },
        {
            "left": "l",
            "right": "ady",
            "result": "lady",
            "rank": 803
        },
        {
            "left": "ear",
            "right": "th",
            "result": "earth",
            "rank": 804
        },
        {
            "left": "you",
            "right": "ng",
            "result": "young",
            "rank": 805
        },
        {
            "left": "Yor",
            "right": "k",
            "result": "York",
            "rank": 806
        },
        {
            "left": "EL",
            "right": "IZ",
            "result": "ELIZ",
            "rank": 807
        },
        {
            "left": "ELIZ",
            "right": "AB",
            "result": "ELIZAB",
            "rank": 808
        },
        {
            "left": "ELIZAB",
            "right": "ET",
            "result": "ELIZABET",
            "rank": 809
        },
        {
            "left": "ELIZABET",
            "right": "H",
            "result": "ELIZABETH",
            "rank": 810
        },
        {
            "left": "ca",
            "right": "me",
            "result": "came",
            "rank": 811
        },
        {
            "left": "th",
            "right": "r",
            "result": "thr",
            "rank": 812
        },
        {
            "left": "G",
            "right": "ood",
            "result": "Good",
            "rank": 813
        },
        {
            "left": "d",
            "right": "re",
            "result": "dre",
            "rank": 814
        },
        {
            "left": "o",
            "right": "ple",
            "result": "ople",
            "rank": 815
        },
        {
            "left": "j",
            "right": "e",
            "result": "je",
            "rank": 816
        },
        {
            "left": "r",
            "right": "an",
            "result": "ran",
            "rank": 817
        },
        {
            "left": "j",
            "right": "ust",
            "result": "just",
            "rank": 818
        },
        {
            "left": "m",
            "right": "ind",
            "result": "mind",
            "rank": 819
        },
        {
            "left": "g",
            "right": "et",
            "result": "get",
            "rank": 820
        },
        {
            "left": "h",
            "right": "ome",
            "result": "home",
            "rank": 821
        },
        {
            "left": "ma",
            "right": "ster",
            "result": "master",
            "rank": 822
        },
        {
            "left": "I",
            "right": "AN",
            "result": "IAN",
            "rank": 823
        },
        {
            "left": "pe",
            "right": "ople",
            "result": "people",
            "rank": 824
        },
        {
            "left": "on",
            "right": "ce",
            "result": "once",
            "rank": 825
        },
        {
            "left": "Y",
            "right": "et",
            "result": "Yet",
            "rank": 826
        },
        {
            "left": "hus",
            "right": "band",
            "result": "husband",
            "rank": 827
        },
        {
            "left": "H",
            "right": "en",
            "result": "Hen",
            "rank": 828
        },
        {
            "left": "Hen",
            "right": "ry",
            "result": "Henry",
            "rank": 829
        },
        {
            "left": "com",
            "right": "p",
            "result": "comp",
            "rank": 830
        },
        {
            "left": "pla",
            "right": "ce",
            "result": "place",
            "rank": 831
        },
        {
            "left": "see",
            "right": "m",
            "result": "seem",
            "rank": 832
        },
        {
            "left": "are",
            "right": "well",
            "result": "arewell",
            "rank": 833
        },
        {
            "left": "I",
            "right": "A",
            "result": "IA",
            "rank": 834
        },
        {
            "left": "ha",
            "right": "pp",
            "result": "happ",
            "rank": 835
        },
        {
            "left": "l",
            "right": "ay",
            "result": "lay",
            "rank": 836
        },
        {
            "left": "af",
            "right": "ter",
            "result": "after",
            "rank": 837
        },
        {
            "left": "qu",
            "right": "i",
            "result": "qui",
            "rank": 838
        },
        {
            "left": "s",
            "right": "or",
            "result": "sor",
            "rank": 839
        },
        {
            "left": "P",
            "right": "ER",
            "result": "PER",
            "rank": 840
        },
        {
            "left": "A",
            "right": "ll",
            "result": "All",
            "rank": 841
        },
        {
            "left": "st",
            "right": "e",
            "result": "ste",
            "rank": 842
        },
        {
            "left": "S",
            "right": "hall",
            "result": "Shall",
            "rank": 843
        },
        {
            "left": "f",
            "right": "all",
            "result": "fall",
            "rank": 844
        },
        {
            "left": "c",
            "right": "le",
            "result": "cle",
            "rank": 845
        },
        {
            "left": "G",
            "right": "E",
            "result": "GE",
            "rank": 846
        },
        {
            "left": "W",
            "right": "AR",
            "result": "WAR",
            "rank": 847
        },
        {
            "left": "WAR",
            "right": "W",
            "result": "WARW",
            "rank": 848
        },
        {
            "left": "WARW",
            "right": "IC",
            "result": "WARWIC",
            "rank": 849
        },
        {
            "left": "WARWIC",
            "right": "K",
            "result": "WARWICK",
            "rank": 850
        },
        {
            "left": "w",
            "right": "hy",
            "result": "why",
            "rank": 851
        },
        {
            "left": "is",
            "right": "ter",
            "result": "ister",
            "rank": 852
        },
        {
            "left": "fe",
            "right": "llow",
            "result": "fellow",
            "rank": 853
        },
        {
            "left": "fo",
            "right": "llow",
            "result": "follow",
            "rank": 854
        },
        {
            "left": "be",
            "right": "d",
            "result": "bed",
            "rank": 855
        },
        {
            "left": "we",
            "right": "l",
            "result": "wel",
            "rank": 856
        },
        {
            "left": "v",
            "right": "ant",
            "result": "vant",
            "rank": 857
        },
        {
            "left": "--",
            "right": "\n",
            "result": "--\n",
            "rank": 858
        },
        {
            "left": "la",
            "right": "st",
            "result": "last",
            "rank": 859
        },
        {
            "left": "N",
            "right": "urse",
            "result": "Nurse",
            "rank": 860
        },
        {
            "left": "re",
            "right": "p",
            "result": "rep",
            "rank": 861
        },
        {
            "left": "ple",
            "right": "ase",
            "result": "please",
            "rank": 862
        },
        {
            "left": "The",
            "right": "y",
            "result": "They",
            "rank": 863
        },
        {
            "left": "n",
            "right": "one",
            "result": "none",
            "rank": 864
        },
        {
            "left": "HA",
            "right": "M",
            "result": "HAM",
            "rank": 865
        },
        {
            "left": "hi",
            "right": "ther",
            "result": "hither",
            "rank": 866
        },
        {
            "left": "c",
            "right": "ha",
            "result": "cha",
            "rank": 867
        },
        {
            "left": "h",
            "right": "or",
            "result": "hor",
            "rank": 868
        },
        {
            "left": "sa",
            "right": "id",
            "result": "said",
            "rank": 869
        },
        {
            "left": "d",
            "right": "r",
            "result": "dr",
            "rank": 870
        },
        {
            "left": "g",
            "right": "i",
            "result": "gi",
            "rank": 871
        },
        {
            "left": "p",
            "right": "ardon",
            "result": "pardon",
            "rank": 872
        },
        {
            "left": "tr",
            "right": "u",
            "result": "tru",
            "rank": 873
        },
        {
            "left": "mor",
            "right": "row",
            "result": "morrow",
            "rank": 874
        },
        {
            "left": "CA",
            "right": "P",
            "result": "CAP",
            "rank": 875
        },
        {
            "left": "CAP",
            "right": "UL",
            "result": "CAPUL",
            "rank": 876
        },
        {
            "left": "CAPUL",
            "right": "ET",
            "result": "CAPULET",
            "rank": 877
        },
        {
            "left": "ou",
            "right": "d",
            "result": "oud",
            "rank": 878
        },
        {
            "left": "e",
            "right": "very",
            "result": "every",
            "rank": 879
        },
        {
            "left": "g",
            "right": "l",
            "result": "gl",
            "rank": 880
        },
        {
            "left": "d",
            "right": "ou",
            "result": "dou",
            "rank": 881
        },
        {
            "left": "b",
            "right": "u",
            "result": "bu",
            "rank": 882
        },
        {
            "left": "br",
            "right": "ing",
            "result": "bring",
            "rank": 883
        },
        {
            "left": "hand",
            "right": "s",
            "result": "hands",
            "rank": 884
        },
        {
            "left": "k",
            "right": "ill",
            "result": "kill",
            "rank": 885
        },
        {
            "left": "p",
            "right": "at",
            "result": "pat",
            "rank": 886
        },
        {
            "left": "wo",
            "right": "man",
            "result": "woman",
            "rank": 887
        },
        {
            "left": "bo",
            "right": "y",
            "result": "boy",
            "rank": 888
        },
        {
            "left": "g",
            "right": "ue",
            "result": "gue",
            "rank": 889
        },
        {
            "left": "ous",
            "right": "in",
            "result": "ousin",
            "rank": 890
        },
        {
            "left": "M",
            "right": "IO",
            "result": "MIO",
            "rank": 891
        },
        {
            "left": "tr",
            "right": "y",
            "result": "try",
            "rank": 892
        },
        {
            "left": "s",
            "right": "hi",
            "result": "shi",
            "rank": 893
        },
        {
            "left": "sha",
            "right": "me",
            "result": "shame",
            "rank": 894
        },
        {
            "left": "ac",
            "right": "c",
            "result": "acc",
            "rank": 895
        },
        {
            "left": "he",
            "right": "ard",
            "result": "heard",
            "rank": 896
        },
        {
            "left": "m",
            "right": "ber",
            "result": "mber",
            "rank": 897
        },
        {
            "left": "BR",
            "right": "UT",
            "result": "BRUT",
            "rank": 898
        },
        {
            "left": "BRUT",
            "right": "US",
            "result": "BRUTUS",
            "rank": 899
        },
        {
            "left": "te",
            "right": "m",
            "result": "tem",
            "rank": 900
        },
        {
            "left": "B",
            "right": "UC",
            "result": "BUC",
            "rank": 901
        },
        {
            "left": "BUC",
            "right": "KING",
            "result": "BUCKING",
            "rank": 902
        },
        {
            "left": "BUCKING",
            "right": "HAM",
            "result": "BUCKINGHAM",
            "rank": 903
        },
        {
            "left": "i",
            "right": "us",
            "result": "ius",
            "rank": 904
        },
        {
            "left": "f",
            "right": "f",
            "result": "ff",
            "rank": 905
        },
        {
            "left": "b",
            "right": "us",
            "result": "bus",
            "rank": 906
        },
        {
            "left": "F",
            "right": "rom",
            "result": "From",
            "rank": 907
        },
        {
            "left": "at",
            "right": "es",
            "result": "ates",
            "rank": 908
        },
        {
            "left": "j",
            "right": "est",
            "result": "jest",
            "rank": 909
        },
        {
            "left": "c",
            "right": "lo",
            "result": "clo",
            "rank": 910
        },
        {
            "left": "d",
            "right": "ra",
            "result": "dra",
            "rank": 911
        },
        {
            "left": "ES",
            "right": "S",
            "result": "ESS",
            "rank": 912
        },
        {
            "left": "B",
            "right": "OL",
            "result": "BOL",
            "rank": 913
        },
        {
            "left": "BOL",
            "right": "ING",
            "result": "BOLING",
            "rank": 914
        },
        {
            "left": "BOLING",
            "right": "B",
            "result": "BOLINGB",
            "rank": 915
        },
        {
            "left": "BOLINGB",
            "right": "RO",
            "result": "BOLINGBRO",
            "rank": 916
        },
        {
            "left": "BOLINGBRO",
            "right": "KE",
            "result": "BOLINGBROKE",
            "rank": 917
        },
        {
            "left": "LA",
            "right": "U",
            "result": "LAU",
            "rank": 918
        },
        {
            "left": "T",
            "right": "RAN",
            "result": "TRAN",
            "rank": 919
        },
        {
            "left": "TRAN",
            "right": "IO",
            "result": "TRANIO",
            "rank": 920
        },
        {
            "left": "who",
            "right": "se",
            "result": "whose",
            "rank": 921
        },
        {
            "left": "s",
            "right": "and",
            "result": "sand",
            "rank": 922
        },
        {
            "left": "c",
            "right": "ar",
            "result": "car",
            "rank": 923
        },
        {
            "left": "pres",
            "right": "ent",
            "result": "present",
            "rank": 924
        },
        {
            "left": "te",
            "right": "ars",
            "result": "tears",
            "rank": 925
        },
        {
            "left": "ut",
            "right": "y",
            "result": "uty",
            "rank": 926
        },
        {
            "left": "M",
            "right": "IL",
            "result": "MIL",
            "rank": 927
        },
        {
            "left": "vo",
            "right": "st",
            "result": "vost",
            "rank": 928
        },
        {
            "left": "O",
            "right": "ur",
            "result": "Our",
            "rank": 929
        },
        {
            "left": "b",
            "right": "ri",
            "result": "bri",
            "rank": 930
        },
        {
            "left": "v",
            "right": "y",
            "result": "vy",
            "rank": 931
        },
        {
            "left": "k",
            "right": "en",
            "result": "ken",
            "rank": 932
        },
        {
            "left": "ma",
            "right": "id",
            "result": "maid",
            "rank": 933
        },
        {
            "left": "roy",
            "right": "al",
            "result": "royal",
            "rank": 934
        },
        {
            "left": "T",
            "right": "IS",
            "result": "TIS",
            "rank": 935
        },
        {
            "left": "s",
            "right": "en",
            "result": "sen",
            "rank": 936
        },
        {
            "left": "st",
            "right": "ate",
            "result": "state",
            "rank": 937
        },
        {
            "left": "la",
            "right": "ck",
            "result": "lack",
            "rank": 938
        },
        {
            "left": "s",
            "right": "ince",
            "result": "since",
            "rank": 939
        },
        {
            "left": "p",
            "right": "ass",
            "result": "pass",
            "rank": 940
        },
        {
            "left": "c",
            "right": "er",
            "result": "cer",
            "rank": 941
        },
        {
            "left": "c",
            "right": "ent",
            "result": "cent",
            "rank": 942
        },
        {
            "left": "w",
            "right": "it",
            "result": "wit",
            "rank": 943
        },
        {
            "left": "wr",
            "right": "ong",
            "result": "wrong",
            "rank": 944
        },
        {
            "left": "c",
            "right": "ur",
            "result": "cur",
            "rank": 945
        },
        {
            "left": "g",
            "right": "ar",
            "result": "gar",
            "rank": 946
        },
        {
            "left": "me",
            "right": "et",
            "result": "meet",
            "rank": 947
        },
        {
            "left": "f",
            "right": "al",
            "result": "fal",
            "rank": 948
        },
        {
            "left": "sor",
            "right": "row",
            "result": "sorrow",
            "rank": 949
        },
        {
            "left": "K",
            "right": "ing",
            "result": "King",
            "rank": 950
        },
        {
            "left": "N",
            "right": "E",
            "result": "NE",
            "rank": 951
        },
        {
            "left": "MAR",
            "right": "G",
            "result": "MARG",
            "rank": 952
        },
        {
            "left": "MARG",
            "right": "AR",
            "result": "MARGAR",
            "rank": 953
        },
        {
            "left": "MARGAR",
            "right": "ET",
            "result": "MARGARET",
            "rank": 954
        },
        {
            "left": "g",
            "right": "ain",
            "result": "gain",
            "rank": 955
        },
        {
            "left": "ey",
            "right": "e",
            "result": "eye",
            "rank": 956
        },
        {
            "left": "s",
            "right": "un",
            "result": "sun",
            "rank": 957
        },
        {
            "left": "pr",
            "right": "ison",
            "result": "prison",
            "rank": 958
        },
        {
            "left": "A",
            "right": "TH",
            "result": "ATH",
            "rank": 959
        },
        {
            "left": "whi",
            "right": "le",
            "result": "while",
            "rank": 960
        },
        {
            "left": "v",
            "right": "ir",
            "result": "vir",
            "rank": 961
        },
        {
            "left": "hel",
            "right": "p",
            "result": "help",
            "rank": 962
        },
        {
            "left": "O",
            "right": "n",
            "result": "On",
            "rank": 963
        },
        {
            "left": "who",
            "right": "m",
            "result": "whom",
            "rank": 964
        },
        {
            "left": "CA",
            "right": "L",
            "result": "CAL",
            "rank": 965
        },
        {
            "left": "l",
            "right": "es",
            "result": "les",
            "rank": 966
        },
        {
            "left": "p",
            "right": "i",
            "result": "pi",
            "rank": 967
        },
        {
            "left": "it",
            "right": "ion",
            "result": "ition",
            "rank": 968
        },
        {
            "left": "sel",
            "right": "ves",
            "result": "selves",
            "rank": 969
        },
        {
            "left": "thou",
            "right": "sand",
            "result": "thousand",
            "rank": 970
        },
        {
            "left": "ans",
            "right": "wer",
            "result": "answer",
            "rank": 971
        },
        {
            "left": "t",
            "right": "ing",
            "result": "ting",
            "rank": 972
        },
        {
            "left": "ab",
            "right": "out",
            "result": "about",
            "rank": 973
        },
        {
            "left": "g",
            "right": "en",
            "result": "gen",
            "rank": 974
        },
        {
            "left": "re",
            "right": "me",
            "result": "reme",
            "rank": 975
        },
        {
            "left": "w",
            "right": "n",
            "result": "wn",
            "rank": 976
        },
        {
            "left": "B",
            "right": "o",
            "result": "Bo",
            "rank": 977
        },
        {
            "left": "v",
            "right": "ere",
            "result": "vere",
            "rank": 978
        },
        {
            "left": "gra",
            "right": "cious",
            "result": "gracious",
            "rank": 979
        },
        {
            "left": "x",
            "right": "t",
            "result": "xt",
            "rank": 980
        },
        {
            "left": "tr",
            "right": "ess",
            "result": "tress",
            "rank": 981
        },
        {
            "left": "Cl",
            "right": "ar",
            "result": "Clar",
            "rank": 982
        },
        {
            "left": "OR",
            "right": "D",
            "result": "ORD",
            "rank": 983
        },
        {
            "left": "AN",
            "right": "GE",
            "result": "ANGE",
            "rank": 984
        },
        {
            "left": "ANGE",
            "right": "LO",
            "result": "ANGELO",
            "rank": 985
        },
        {
            "left": "H",
            "right": "OR",
            "result": "HOR",
            "rank": 986
        },
        {
            "left": "v",
            "right": "il",
            "result": "vil",
            "rank": 987
        },
        {
            "left": "g",
            "right": "re",
            "result": "gre",
            "rank": 988
        },
        {
            "left": "foo",
            "right": "l",
            "result": "fool",
            "rank": 989
        },
        {
            "left": "li",
            "right": "es",
            "result": "lies",
            "rank": 990
        },
        {
            "left": "we",
            "right": "ep",
            "result": "weep",
            "rank": 991
        },
        {
            "left": "is",
            "right": "s",
            "result": "iss",
            "rank": 992
        },
        {
            "left": "Clar",
            "right": "ence",
            "result": "Clarence",
            "rank": 993
        },
        {
            "left": "E",
            "right": "ng",
            "result": "Eng",
            "rank": 994
        },
        {
            "left": "C",
            "right": "U",
            "result": "CU",
            "rank": 995
        },
        {
            "left": "AR",
            "right": "INA",
            "result": "ARINA",
            "rank": 996
        },
        {
            "left": "Mar",
            "right": "ci",
            "result": "Marci",
            "rank": 997
        },
        {
            "left": "ce",
            "right": "ive",
            "result": "ceive",
            "rank": 998
        },
        {
            "left": "n",
            "right": "ing",
            "result": "ning",
            "rank": 999
        },
        {
            "left": "m",
            "right": "on",
            "result": "mon",
            "rank": 1000
        }
    ]
}