{
    "name": "500_merges_tokenization.json",
    "creation_date": "2026-06-22_12-47-30",
    "vocab_size": 756,
    "token_to_id": {
        "\u0000": 1,
        "\u0001": 2,
        "\u0002": 3,
        "\u0003": 4,
        "\u0004": 5,
        "\u0005": 6,
        "\u0006": 7,
        "\u0007": 8,
        "\b": 9,
        "\t": 10,
        "\n": 11,
        "\u000b": 12,
        "\f": 13,
        "\r": 14,
        "\u000e": 15,
        "\u000f": 16,
        "\u0010": 17,
        "\u0011": 18,
        "\u0012": 19,
        "\u0013": 20,
        "\u0014": 21,
        "\u0015": 22,
        "\u0016": 23,
        "\u0017": 24,
        "\u0018": 25,
        "\u0019": 26,
        "\u001a": 27,
        "\u001b": 28,
        "\u001c": 29,
        "\u001d": 30,
        "\u001e": 31,
        "\u001f": 32,
        " ": 33,
        "!": 34,
        "\"": 35,
        "#": 36,
        "$": 37,
        "%": 38,
        "&": 39,
        "'": 40,
        "(": 41,
        ")": 42,
        "*": 43,
        "+": 44,
        ",": 45,
        "-": 46,
        ".": 47,
        "/": 48,
        "0": 49,
        "1": 50,
        "2": 51,
        "3": 52,
        "4": 53,
        "5": 54,
        "6": 55,
        "7": 56,
        "8": 57,
        "9": 58,
        ":": 59,
        ";": 60,
        "<": 61,
        "=": 62,
        ">": 63,
        "?": 64,
        "@": 65,
        "A": 66,
        "B": 67,
        "C": 68,
        "D": 69,
        "E": 70,
        "F": 71,
        "G": 72,
        "H": 73,
        "I": 74,
        "J": 75,
        "K": 76,
        "L": 77,
        "M": 78,
        "N": 79,
        "O": 80,
        "P": 81,
        "Q": 82,
        "R": 83,
        "S": 84,
        "T": 85,
        "U": 86,
        "V": 87,
        "W": 88,
        "X": 89,
        "Y": 90,
        "Z": 91,
        "[": 92,
        "\\": 93,
        "]": 94,
        "^": 95,
        "_": 96,
        "`": 97,
        "a": 98,
        "b": 99,
        "c": 100,
        "d": 101,
        "e": 102,
        "f": 103,
        "g": 104,
        "h": 105,
        "i": 106,
        "j": 107,
        "k": 108,
        "l": 109,
        "m": 110,
        "n": 111,
        "o": 112,
        "p": 113,
        "q": 114,
        "r": 115,
        "s": 116,
        "t": 117,
        "u": 118,
        "v": 119,
        "w": 120,
        "x": 121,
        "y": 122,
        "z": 123,
        "{": 124,
        "|": 125,
        "}": 126,
        "~": 127,
        "": 128,
        "": 129,
        "": 130,
        "": 131,
        "": 132,
        "": 133,
        "": 134,
        "": 135,
        "": 136,
        "": 137,
        "": 138,
        "": 139,
        "": 140,
        "": 141,
        "": 142,
        "": 143,
        "": 144,
        "": 145,
        "": 146,
        "": 147,
        "": 148,
        "": 149,
        "": 150,
        "": 151,
        "": 152,
        "": 153,
        "": 154,
        "": 155,
        "": 156,
        "": 157,
        "": 158,
        "": 159,
        "": 160,
        " ": 161,
        "¡": 162,
        "¢": 163,
        "£": 164,
        "¤": 165,
        "¥": 166,
        "¦": 167,
        "§": 168,
        "¨": 169,
        "©": 170,
        "ª": 171,
        "«": 172,
        "¬": 173,
        "­": 174,
        "®": 175,
        "¯": 176,
        "°": 177,
        "±": 178,
        "²": 179,
        "³": 180,
        "´": 181,
        "µ": 182,
        "¶": 183,
        "·": 184,
        "¸": 185,
        "¹": 186,
        "º": 187,
        "»": 188,
        "¼": 189,
        "½": 190,
        "¾": 191,
        "¿": 192,
        "À": 193,
        "Á": 194,
        "Â": 195,
        "Ã": 196,
        "Ä": 197,
        "Å": 198,
        "Æ": 199,
        "Ç": 200,
        "È": 201,
        "É": 202,
        "Ê": 203,
        "Ë": 204,
        "Ì": 205,
        "Í": 206,
        "Î": 207,
        "Ï": 208,
        "Ð": 209,
        "Ñ": 210,
        "Ò": 211,
        "Ó": 212,
        "Ô": 213,
        "Õ": 214,
        "Ö": 215,
        "×": 216,
        "Ø": 217,
        "Ù": 218,
        "Ú": 219,
        "Û": 220,
        "Ü": 221,
        "Ý": 222,
        "Þ": 223,
        "ß": 224,
        "à": 225,
        "á": 226,
        "â": 227,
        "ã": 228,
        "ä": 229,
        "å": 230,
        "æ": 231,
        "ç": 232,
        "è": 233,
        "é": 234,
        "ê": 235,
        "ë": 236,
        "ì": 237,
        "í": 238,
        "î": 239,
        "ï": 240,
        "ð": 241,
        "ñ": 242,
        "ò": 243,
        "ó": 244,
        "ô": 245,
        "õ": 246,
        "ö": 247,
        "÷": 248,
        "ø": 249,
        "ù": 250,
        "ú": 251,
        "û": 252,
        "ü": 253,
        "ý": 254,
        "þ": 255,
        "ÿ": 256,
        "th": 257,
        ", ": 258,
        "ou": 259,
        "er": 260,
        "in": 261,
        "an": 262,
        ":\n": 263,
        "the": 264,
        "or": 265,
        "is": 266,
        "\n\n": 267,
        "en": 268,
        "ar": 269,
        "at": 270,
        "on": 271,
        "st": 272,
        "ll": 273,
        ",\n": 274,
        "me": 275,
        "to": 276,
        ".\n\n": 277,
        "and": 278,
        "he": 279,
        "you": 280,
        "es": 281,
        "no": 282,
        "se": 283,
        "ha": 284,
        "re": 285,
        "of": 286,
        "ve": 287,
        "it": 288,
        "ing": 289,
        "be": 290,
        "le": 291,
        "wi": 292,
        "my": 293,
        "hi": 294,
        "ow": 295,
        "ce": 296,
        "for": 297,
        "ay": 298,
        "as": 299,
        "ch": 300,
        "nd": 301,
        "ere": 302,
        "ld": 303,
        "ir": 304,
        "ed": 305,
        "ut": 306,
        "ro": 307,
        "not": 308,
        "li": 309,
        "de": 310,
        "we": 311,
        "hat": 312,
        "that": 313,
        "gh": 314,
        "And": 315,
        "ke": 316,
        "; ": 317,
        "'s": 318,
        "oo": 319,
        "our": 320,
        "with": 321,
        "ome": 322,
        ";\n": 323,
        "ent": 324,
        "his": 325,
        ".\n": 326,
        "ri": 327,
        "your": 328,
        "thou": 329,
        ": ": 330,
        "ther": 331,
        "ad": 332,
        "al": 333,
        "et": 334,
        "'d": 335,
        "all": 336,
        "ght": 337,
        "EN": 338,
        "ur": 339,
        "us": 340,
        "have": 341,
        "him": 342,
        "IN": 343,
        "ly": 344,
        "so": 345,
        "?\n\n": 346,
        "ra": 347,
        "this": 348,
        "IO": 349,
        "ord": 350,
        "do": 351,
        "un": 352,
        "ho": 353,
        "ma": 354,
        ". ": 355,
        "ess": 356,
        "pe": 357,
        "fe": 358,
        "AR": 359,
        "ould": 360,
        "are": 361,
        "lo": 362,
        "here": 363,
        "ood": 364,
        "id": 365,
        "thy": 366,
        "ver": 367,
        "fa": 368,
        "ck": 369,
        "one": 370,
        "man": 371,
        "ti": 372,
        "now": 373,
        "The": 374,
        "am": 375,
        "sha": 376,
        "will": 377,
        "ne": 378,
        "ge": 379,
        "ain": 380,
        "but": 381,
        "ard": 382,
        "su": 383,
        "her": 384,
        "US": 385,
        "! ": 386,
        "ter": 387,
        "con": 388,
        "pr": 389,
        "Th": 390,
        "To": 391,
        "end": 392,
        "by": 393,
        "thee": 394,
        "ue": 395,
        "om": 396,
        "la": 397,
        "shall": 398,
        "art": 399,
        "mor": 400,
        "up": 401,
        "UC": 402,
        "sh": 403,
        "come": 404,
        "po": 405,
        "ING": 406,
        "rom": 407,
        "own": 408,
        "AN": 409,
        "ust": 410,
        "ta": 411,
        "That": 412,
        "tr": 413,
        "what": 414,
        "ER": 415,
        "OR": 416,
        "ous": 417,
        "mo": 418,
        "sel": 419,
        "!\n": 420,
        "ET": 421,
        "te": 422,
        "ES": 423,
        "go": 424,
        "good": 425,
        "if": 426,
        "ill": 427,
        "But": 428,
        "ine": 429,
        "? ": 430,
        "ath": 431,
        "hen": 432,
        "!\n\n": 433,
        "ble": 434,
        "ight": 435,
        "lord": 436,
        "'t": 437,
        "hich": 438,
        "ion": 439,
        "king": 440,
        "'ll": 441,
        "What": 442,
        "was": 443,
        "bo": 444,
        "il": 445,
        "ant": 446,
        "ven": 447,
        "KING": 448,
        "she": 449,
        "ca": 450,
        "?\n": 451,
        "ul": 452,
        "from": 453,
        "ong": 454,
        "bl": 455,
        "more": 456,
        "For": 457,
        "well": 458,
        "them": 459,
        "sa": 460,
        "IC": 461,
        "ak": 462,
        "sir": 463,
        "self": 464,
        "ind": 465,
        "would": 466,
        "there": 467,
        "wor": 468,
        "love": 469,
        "know": 470,
        "per": 471,
        "can": 472,
        "ct": 473,
        "out": 474,
        "ive": 475,
        "LO": 476,
        "ate": 477,
        "com": 478,
        "say": 479,
        "then": 480,
        "see": 481,
        "let": 482,
        "IUS": 483,
        "ARD": 484,
        "their": 485,
        "di": 486,
        "My": 487,
        "than": 488,
        "ci": 489,
        "ry": 490,
        "they": 491,
        "--": 492,
        "fore": 493,
        "I'll": 494,
        "ence": 495,
        "ag": 496,
        "ep": 497,
        "like": 498,
        "ear": 499,
        "spe": 500,
        "Go": 501,
        "ers": 502,
        "hy": 503,
        "may": 504,
        "EL": 505,
        "were": 506,
        "um": 507,
        "bro": 508,
        "way": 509,
        "pro": 510,
        "As": 511,
        "ast": 512,
        "We": 513,
        "ves": 514,
        "ish": 515,
        "ink": 516,
        "time": 517,
        "KE": 518,
        "hath": 519,
        "II": 520,
        "qu": 521,
        "irst": 522,
        "No": 523,
        "ure": 524,
        "He": 525,
        "make": 526,
        "ol": 527,
        "ple": 528,
        "You": 529,
        "who": 530,
        "thing": 531,
        "row": 532,
        "must": 533,
        "gra": 534,
        "ound": 535,
        "ith": 536,
        "ap": 537,
        "ave": 538,
        "some": 539,
        "ook": 540,
        "should": 541,
        "OL": 542,
        "father": 543,
        "fi": 544,
        "LA": 545,
        "RO": 546,
        "use": 547,
        "TIO": 548,
        "ity": 549,
        "too": 550,
        "had": 551,
        "upon": 552,
        "son": 553,
        "did": 554,
        "CA": 555,
        "day": 556,
        "ig": 557,
        "ance": 558,
        "ward": 559,
        "dis": 560,
        "ON": 561,
        "how": 562,
        "wo": 563,
        "which": 564,
        "death": 565,
        "oun": 566,
        "reat": 567,
        "word": 568,
        "IS": 569,
        "fri": 570,
        "If": 571,
        "sp": 572,
        "when": 573,
        "est": 574,
        "men": 575,
        "speak": 576,
        "entle": 577,
        "In": 578,
        "again": 579,
        "heart": 580,
        "ICH": 581,
        "RICH": 582,
        "vi": 583,
        "ful": 584,
        "DU": 585,
        "DUKE": 586,
        "hand": 587,
        "yet": 588,
        "old": 589,
        "mar": 590,
        "el": 591,
        "Thou": 592,
        "very": 593,
        "mine": 594,
        "UL": 595,
        "think": 596,
        "RICHARD": 597,
        "ENTIO": 598,
        "take": 599,
        "pl": 600,
        "Which": 601,
        "si": 602,
        "swe": 603,
        "ac": 604,
        "God": 605,
        "hear": 606,
        "Be": 607,
        "With": 608,
        "ince": 609,
        "INC": 610,
        "str": 611,
        "ign": 612,
        "Why": 613,
        "give": 614,
        "Of": 615,
        "na": 616,
        "such": 617,
        "First": 618,
        "land": 619,
        "ang": 620,
        "ness": 621,
        "most": 622,
        "blood": 623,
        "uch": 624,
        "AB": 625,
        "ex": 626,
        "des": 627,
        "ster": 628,
        "brother": 629,
        "these": 630,
        "tell": 631,
        "hea": 632,
        "br": 633,
        "any": 634,
        "ise": 635,
        "ey": 636,
        "ba": 637,
        "onour": 638,
        "UE": 639,
        "bre": 640,
        "other": 641,
        "im": 642,
        "where": 643,
        "llow": 644,
        "How": 645,
        "que": 646,
        "Come": 647,
        "less": 648,
        "ty": 649,
        "arm": 650,
        "life": 651,
        "coun": 652,
        "This": 653,
        "EST": 654,
        "look": 655,
        "new": 656,
        "ort": 657,
        "So": 658,
        "UCH": 659,
        "friend": 660,
        "Who": 661,
        "oul": 662,
        "gentle": 663,
        "ught": 664,
        "vo": 665,
        "GLO": 666,
        "GLOUC": 667,
        "GLOUCEST": 668,
        "GLOUCESTER": 669,
        "chi": 670,
        "ars": 671,
        "af": 672,
        "mis": 673,
        "ving": 674,
        "ady": 675,
        "hast": 676,
        "Lord": 677,
        "ab": 678,
        "urse": 679,
        "ts": 680,
        "Rome": 681,
        "night": 682,
        "off": 683,
        "rown": 684,
        "fair": 685,
        "RY": 686,
        "made": 687,
        "age": 688,
        "'st": 689,
        "LE": 690,
        "QUE": 691,
        "QUEEN": 692,
        "VINC": 693,
        "VINCENTIO": 694,
        "honour": 695,
        "Se": 696,
        "ans": 697,
        "tion": 698,
        "much": 699,
        "OF": 700,
        "ond": 701,
        "Is": 702,
        "lie": 703,
        "Where": 704,
        "urn": 705,
        "UM": 706,
        "LAN": 707,
        "Mar": 708,
        "pre": 709,
        "stand": 710,
        "cond": 711,
        "HEN": 712,
        "'tis": 713,
        "Now": 714,
        "che": 715,
        "name": 716,
        "tle": 717,
        "em": 718,
        "ef": 719,
        "HENRY": 720,
        "ng": 721,
        "part": 722,
        "never": 723,
        "ber": 724,
        "fear": 725,
        "io": 726,
        "ies": 727,
        "ces": 728,
        "Your": 729,
        "live": 730,
        "lt": 731,
        "ower": 732,
        "ser": 733,
        "jo": 734,
        "uke": 735,
        "It": 736,
        "great": 737,
        "call": 738,
        "ass": 739,
        "o'": 740,
        "fo": 741,
        "head": 742,
        "YOR": 743,
        "YORK": 744,
        "ree": 745,
        "und": 746,
        "ment": 747,
        "ation": 748,
        "Or": 749,
        "INIUS": 750,
        "cannot": 751,
        "pray": 752,
        "ever": 753,
        "heaven": 754,
        "red": 755,
        "true": 756
    },
    "id_to_token": {
        "1": "\u0000",
        "2": "\u0001",
        "3": "\u0002",
        "4": "\u0003",
        "5": "\u0004",
        "6": "\u0005",
        "7": "\u0006",
        "8": "\u0007",
        "9": "\b",
        "10": "\t",
        "11": "\n",
        "12": "\u000b",
        "13": "\f",
        "14": "\r",
        "15": "\u000e",
        "16": "\u000f",
        "17": "\u0010",
        "18": "\u0011",
        "19": "\u0012",
        "20": "\u0013",
        "21": "\u0014",
        "22": "\u0015",
        "23": "\u0016",
        "24": "\u0017",
        "25": "\u0018",
        "26": "\u0019",
        "27": "\u001a",
        "28": "\u001b",
        "29": "\u001c",
        "30": "\u001d",
        "31": "\u001e",
        "32": "\u001f",
        "33": " ",
        "34": "!",
        "35": "\"",
        "36": "#",
        "37": "$",
        "38": "%",
        "39": "&",
        "40": "'",
        "41": "(",
        "42": ")",
        "43": "*",
        "44": "+",
        "45": ",",
        "46": "-",
        "47": ".",
        "48": "/",
        "49": "0",
        "50": "1",
        "51": "2",
        "52": "3",
        "53": "4",
        "54": "5",
        "55": "6",
        "56": "7",
        "57": "8",
        "58": "9",
        "59": ":",
        "60": ";",
        "61": "<",
        "62": "=",
        "63": ">",
        "64": "?",
        "65": "@",
        "66": "A",
        "67": "B",
        "68": "C",
        "69": "D",
        "70": "E",
        "71": "F",
        "72": "G",
        "73": "H",
        "74": "I",
        "75": "J",
        "76": "K",
        "77": "L",
        "78": "M",
        "79": "N",
        "80": "O",
        "81": "P",
        "82": "Q",
        "83": "R",
        "84": "S",
        "85": "T",
        "86": "U",
        "87": "V",
        "88": "W",
        "89": "X",
        "90": "Y",
        "91": "Z",
        "92": "[",
        "93": "\\",
        "94": "]",
        "95": "^",
        "96": "_",
        "97": "`",
        "98": "a",
        "99": "b",
        "100": "c",
        "101": "d",
        "102": "e",
        "103": "f",
        "104": "g",
        "105": "h",
        "106": "i",
        "107": "j",
        "108": "k",
        "109": "l",
        "110": "m",
        "111": "n",
        "112": "o",
        "113": "p",
        "114": "q",
        "115": "r",
        "116": "s",
        "117": "t",
        "118": "u",
        "119": "v",
        "120": "w",
        "121": "x",
        "122": "y",
        "123": "z",
        "124": "{",
        "125": "|",
        "126": "}",
        "127": "~",
        "128": "",
        "129": "",
        "130": "",
        "131": "",
        "132": "",
        "133": "",
        "134": "",
        "135": "",
        "136": "",
        "137": "",
        "138": "",
        "139": "",
        "140": "",
        "141": "",
        "142": "",
        "143": "",
        "144": "",
        "145": "",
        "146": "",
        "147": "",
        "148": "",
        "149": "",
        "150": "",
        "151": "",
        "152": "",
        "153": "",
        "154": "",
        "155": "",
        "156": "",
        "157": "",
        "158": "",
        "159": "",
        "160": "",
        "161": " ",
        "162": "¡",
        "163": "¢",
        "164": "£",
        "165": "¤",
        "166": "¥",
        "167": "¦",
        "168": "§",
        "169": "¨",
        "170": "©",
        "171": "ª",
        "172": "«",
        "173": "¬",
        "174": "­",
        "175": "®",
        "176": "¯",
        "177": "°",
        "178": "±",
        "179": "²",
        "180": "³",
        "181": "´",
        "182": "µ",
        "183": "¶",
        "184": "·",
        "185": "¸",
        "186": "¹",
        "187": "º",
        "188": "»",
        "189": "¼",
        "190": "½",
        "191": "¾",
        "192": "¿",
        "193": "À",
        "194": "Á",
        "195": "Â",
        "196": "Ã",
        "197": "Ä",
        "198": "Å",
        "199": "Æ",
        "200": "Ç",
        "201": "È",
        "202": "É",
        "203": "Ê",
        "204": "Ë",
        "205": "Ì",
        "206": "Í",
        "207": "Î",
        "208": "Ï",
        "209": "Ð",
        "210": "Ñ",
        "211": "Ò",
        "212": "Ó",
        "213": "Ô",
        "214": "Õ",
        "215": "Ö",
        "216": "×",
        "217": "Ø",
        "218": "Ù",
        "219": "Ú",
        "220": "Û",
        "221": "Ü",
        "222": "Ý",
        "223": "Þ",
        "224": "ß",
        "225": "à",
        "226": "á",
        "227": "â",
        "228": "ã",
        "229": "ä",
        "230": "å",
        "231": "æ",
        "232": "ç",
        "233": "è",
        "234": "é",
        "235": "ê",
        "236": "ë",
        "237": "ì",
        "238": "í",
        "239": "î",
        "240": "ï",
        "241": "ð",
        "242": "ñ",
        "243": "ò",
        "244": "ó",
        "245": "ô",
        "246": "õ",
        "247": "ö",
        "248": "÷",
        "249": "ø",
        "250": "ù",
        "251": "ú",
        "252": "û",
        "253": "ü",
        "254": "ý",
        "255": "þ",
        "256": "ÿ",
        "257": "th",
        "258": ", ",
        "259": "ou",
        "260": "er",
        "261": "in",
        "262": "an",
        "263": ":\n",
        "264": "the",
        "265": "or",
        "266": "is",
        "267": "\n\n",
        "268": "en",
        "269": "ar",
        "270": "at",
        "271": "on",
        "272": "st",
        "273": "ll",
        "274": ",\n",
        "275": "me",
        "276": "to",
        "277": ".\n\n",
        "278": "and",
        "279": "he",
        "280": "you",
        "281": "es",
        "282": "no",
        "283": "se",
        "284": "ha",
        "285": "re",
        "286": "of",
        "287": "ve",
        "288": "it",
        "289": "ing",
        "290": "be",
        "291": "le",
        "292": "wi",
        "293": "my",
        "294": "hi",
        "295": "ow",
        "296": "ce",
        "297": "for",
        "298": "ay",
        "299": "as",
        "300": "ch",
        "301": "nd",
        "302": "ere",
        "303": "ld",
        "304": "ir",
        "305": "ed",
        "306": "ut",
        "307": "ro",
        "308": "not",
        "309": "li",
        "310": "de",
        "311": "we",
        "312": "hat",
        "313": "that",
        "314": "gh",
        "315": "And",
        "316": "ke",
        "317": "; ",
        "318": "'s",
        "319": "oo",
        "320": "our",
        "321": "with",
        "322": "ome",
        "323": ";\n",
        "324": "ent",
        "325": "his",
        "326": ".\n",
        "327": "ri",
        "328": "your",
        "329": "thou",
        "330": ": ",
        "331": "ther",
        "332": "ad",
        "333": "al",
        "334": "et",
        "335": "'d",
        "336": "all",
        "337": "ght",
        "338": "EN",
        "339": "ur",
        "340": "us",
        "341": "have",
        "342": "him",
        "343": "IN",
        "344": "ly",
        "345": "so",
        "346": "?\n\n",
        "347": "ra",
        "348": "this",
        "349": "IO",
        "350": "ord",
        "351": "do",
        "352": "un",
        "353": "ho",
        "354": "ma",
        "355": ". ",
        "356": "ess",
        "357": "pe",
        "358": "fe",
        "359": "AR",
        "360": "ould",
        "361": "are",
        "362": "lo",
        "363": "here",
        "364": "ood",
        "365": "id",
        "366": "thy",
        "367": "ver",
        "368": "fa",
        "369": "ck",
        "370": "one",
        "371": "man",
        "372": "ti",
        "373": "now",
        "374": "The",
        "375": "am",
        "376": "sha",
        "377": "will",
        "378": "ne",
        "379": "ge",
        "380": "ain",
        "381": "but",
        "382": "ard",
        "383": "su",
        "384": "her",
        "385": "US",
        "386": "! ",
        "387": "ter",
        "388": "con",
        "389": "pr",
        "390": "Th",
        "391": "To",
        "392": "end",
        "393": "by",
        "394": "thee",
        "395": "ue",
        "396": "om",
        "397": "la",
        "398": "shall",
        "399": "art",
        "400": "mor",
        "401": "up",
        "402": "UC",
        "403": "sh",
        "404": "come",
        "405": "po",
        "406": "ING",
        "407": "rom",
        "408": "own",
        "409": "AN",
        "410": "ust",
        "411": "ta",
        "412": "That",
        "413": "tr",
        "414": "what",
        "415": "ER",
        "416": "OR",
        "417": "ous",
        "418": "mo",
        "419": "sel",
        "420": "!\n",
        "421": "ET",
        "422": "te",
        "423": "ES",
        "424": "go",
        "425": "good",
        "426": "if",
        "427": "ill",
        "428": "But",
        "429": "ine",
        "430": "? ",
        "431": "ath",
        "432": "hen",
        "433": "!\n\n",
        "434": "ble",
        "435": "ight",
        "436": "lord",
        "437": "'t",
        "438": "hich",
        "439": "ion",
        "440": "king",
        "441": "'ll",
        "442": "What",
        "443": "was",
        "444": "bo",
        "445": "il",
        "446": "ant",
        "447": "ven",
        "448": "KING",
        "449": "she",
        "450": "ca",
        "451": "?\n",
        "452": "ul",
        "453": "from",
        "454": "ong",
        "455": "bl",
        "456": "more",
        "457": "For",
        "458": "well",
        "459": "them",
        "460": "sa",
        "461": "IC",
        "462": "ak",
        "463": "sir",
        "464": "self",
        "465": "ind",
        "466": "would",
        "467": "there",
        "468": "wor",
        "469": "love",
        "470": "know",
        "471": "per",
        "472": "can",
        "473": "ct",
        "474": "out",
        "475": "ive",
        "476": "LO",
        "477": "ate",
        "478": "com",
        "479": "say",
        "480": "then",
        "481": "see",
        "482": "let",
        "483": "IUS",
        "484": "ARD",
        "485": "their",
        "486": "di",
        "487": "My",
        "488": "than",
        "489": "ci",
        "490": "ry",
        "491": "they",
        "492": "--",
        "493": "fore",
        "494": "I'll",
        "495": "ence",
        "496": "ag",
        "497": "ep",
        "498": "like",
        "499": "ear",
        "500": "spe",
        "501": "Go",
        "502": "ers",
        "503": "hy",
        "504": "may",
        "505": "EL",
        "506": "were",
        "507": "um",
        "508": "bro",
        "509": "way",
        "510": "pro",
        "511": "As",
        "512": "ast",
        "513": "We",
        "514": "ves",
        "515": "ish",
        "516": "ink",
        "517": "time",
        "518": "KE",
        "519": "hath",
        "520": "II",
        "521": "qu",
        "522": "irst",
        "523": "No",
        "524": "ure",
        "525": "He",
        "526": "make",
        "527": "ol",
        "528": "ple",
        "529": "You",
        "530": "who",
        "531": "thing",
        "532": "row",
        "533": "must",
        "534": "gra",
        "535": "ound",
        "536": "ith",
        "537": "ap",
        "538": "ave",
        "539": "some",
        "540": "ook",
        "541": "should",
        "542": "OL",
        "543": "father",
        "544": "fi",
        "545": "LA",
        "546": "RO",
        "547": "use",
        "548": "TIO",
        "549": "ity",
        "550": "too",
        "551": "had",
        "552": "upon",
        "553": "son",
        "554": "did",
        "555": "CA",
        "556": "day",
        "557": "ig",
        "558": "ance",
        "559": "ward",
        "560": "dis",
        "561": "ON",
        "562": "how",
        "563": "wo",
        "564": "which",
        "565": "death",
        "566": "oun",
        "567": "reat",
        "568": "word",
        "569": "IS",
        "570": "fri",
        "571": "If",
        "572": "sp",
        "573": "when",
        "574": "est",
        "575": "men",
        "576": "speak",
        "577": "entle",
        "578": "In",
        "579": "again",
        "580": "heart",
        "581": "ICH",
        "582": "RICH",
        "583": "vi",
        "584": "ful",
        "585": "DU",
        "586": "DUKE",
        "587": "hand",
        "588": "yet",
        "589": "old",
        "590": "mar",
        "591": "el",
        "592": "Thou",
        "593": "very",
        "594": "mine",
        "595": "UL",
        "596": "think",
        "597": "RICHARD",
        "598": "ENTIO",
        "599": "take",
        "600": "pl",
        "601": "Which",
        "602": "si",
        "603": "swe",
        "604": "ac",
        "605": "God",
        "606": "hear",
        "607": "Be",
        "608": "With",
        "609": "ince",
        "610": "INC",
        "611": "str",
        "612": "ign",
        "613": "Why",
        "614": "give",
        "615": "Of",
        "616": "na",
        "617": "such",
        "618": "First",
        "619": "land",
        "620": "ang",
        "621": "ness",
        "622": "most",
        "623": "blood",
        "624": "uch",
        "625": "AB",
        "626": "ex",
        "627": "des",
        "628": "ster",
        "629": "brother",
        "630": "these",
        "631": "tell",
        "632": "hea",
        "633": "br",
        "634": "any",
        "635": "ise",
        "636": "ey",
        "637": "ba",
        "638": "onour",
        "639": "UE",
        "640": "bre",
        "641": "other",
        "642": "im",
        "643": "where",
        "644": "llow",
        "645": "How",
        "646": "que",
        "647": "Come",
        "648": "less",
        "649": "ty",
        "650": "arm",
        "651": "life",
        "652": "coun",
        "653": "This",
        "654": "EST",
        "655": "look",
        "656": "new",
        "657": "ort",
        "658": "So",
        "659": "UCH",
        "660": "friend",
        "661": "Who",
        "662": "oul",
        "663": "gentle",
        "664": "ught",
        "665": "vo",
        "666": "GLO",
        "667": "GLOUC",
        "668": "GLOUCEST",
        "669": "GLOUCESTER",
        "670": "chi",
        "671": "ars",
        "672": "af",
        "673": "mis",
        "674": "ving",
        "675": "ady",
        "676": "hast",
        "677": "Lord",
        "678": "ab",
        "679": "urse",
        "680": "ts",
        "681": "Rome",
        "682": "night",
        "683": "off",
        "684": "rown",
        "685": "fair",
        "686": "RY",
        "687": "made",
        "688": "age",
        "689": "'st",
        "690": "LE",
        "691": "QUE",
        "692": "QUEEN",
        "693": "VINC",
        "694": "VINCENTIO",
        "695": "honour",
        "696": "Se",
        "697": "ans",
        "698": "tion",
        "699": "much",
        "700": "OF",
        "701": "ond",
        "702": "Is",
        "703": "lie",
        "704": "Where",
        "705": "urn",
        "706": "UM",
        "707": "LAN",
        "708": "Mar",
        "709": "pre",
        "710": "stand",
        "711": "cond",
        "712": "HEN",
        "713": "'tis",
        "714": "Now",
        "715": "che",
        "716": "name",
        "717": "tle",
        "718": "em",
        "719": "ef",
        "720": "HENRY",
        "721": "ng",
        "722": "part",
        "723": "never",
        "724": "ber",
        "725": "fear",
        "726": "io",
        "727": "ies",
        "728": "ces",
        "729": "Your",
        "730": "live",
        "731": "lt",
        "732": "ower",
        "733": "ser",
        "734": "jo",
        "735": "uke",
        "736": "It",
        "737": "great",
        "738": "call",
        "739": "ass",
        "740": "o'",
        "741": "fo",
        "742": "head",
        "743": "YOR",
        "744": "YORK",
        "745": "ree",
        "746": "und",
        "747": "ment",
        "748": "ation",
        "749": "Or",
        "750": "INIUS",
        "751": "cannot",
        "752": "pray",
        "753": "ever",
        "754": "heaven",
        "755": "red",
        "756": "true"
    },
    "rules": [
        {
            "left": "t",
            "right": "h",
            "result": "th",
            "rank": 1
        },
        {
            "left": ",",
            "right": " ",
            "result": ", ",
            "rank": 2
        },
        {
            "left": "o",
            "right": "u",
            "result": "ou",
            "rank": 3
        },
        {
            "left": "e",
            "right": "r",
            "result": "er",
            "rank": 4
        },
        {
            "left": "i",
            "right": "n",
            "result": "in",
            "rank": 5
        },
        {
            "left": "a",
            "right": "n",
            "result": "an",
            "rank": 6
        },
        {
            "left": ":",
            "right": "\n",
            "result": ":\n",
            "rank": 7
        },
        {
            "left": "th",
            "right": "e",
            "result": "the",
            "rank": 8
        },
        {
            "left": "o",
            "right": "r",
            "result": "or",
            "rank": 9
        },
        {
            "left": "i",
            "right": "s",
            "result": "is",
            "rank": 10
        },
        {
            "left": "\n",
            "right": "\n",
            "result": "\n\n",
            "rank": 11
        },
        {
            "left": "e",
            "right": "n",
            "result": "en",
            "rank": 12
        },
        {
            "left": "a",
            "right": "r",
            "result": "ar",
            "rank": 13
        },
        {
            "left": "a",
            "right": "t",
            "result": "at",
            "rank": 14
        },
        {
            "left": "o",
            "right": "n",
            "result": "on",
            "rank": 15
        },
        {
            "left": "s",
            "right": "t",
            "result": "st",
            "rank": 16
        },
        {
            "left": "l",
            "right": "l",
            "result": "ll",
            "rank": 17
        },
        {
            "left": ",",
            "right": "\n",
            "result": ",\n",
            "rank": 18
        },
        {
            "left": "m",
            "right": "e",
            "result": "me",
            "rank": 19
        },
        {
            "left": "t",
            "right": "o",
            "result": "to",
            "rank": 20
        },
        {
            "left": ".",
            "right": "\n\n",
            "result": ".\n\n",
            "rank": 21
        },
        {
            "left": "an",
            "right": "d",
            "result": "and",
            "rank": 22
        },
        {
            "left": "h",
            "right": "e",
            "result": "he",
            "rank": 23
        },
        {
            "left": "y",
            "right": "ou",
            "result": "you",
            "rank": 24
        },
        {
            "left": "e",
            "right": "s",
            "result": "es",
            "rank": 25
        },
        {
            "left": "n",
            "right": "o",
            "result": "no",
            "rank": 26
        },
        {
            "left": "s",
            "right": "e",
            "result": "se",
            "rank": 27
        },
        {
            "left": "h",
            "right": "a",
            "result": "ha",
            "rank": 28
        },
        {
            "left": "r",
            "right": "e",
            "result": "re",
            "rank": 29
        },
        {
            "left": "o",
            "right": "f",
            "result": "of",
            "rank": 30
        },
        {
            "left": "v",
            "right": "e",
            "result": "ve",
            "rank": 31
        },
        {
            "left": "i",
            "right": "t",
            "result": "it",
            "rank": 32
        },
        {
            "left": "in",
            "right": "g",
            "result": "ing",
            "rank": 33
        },
        {
            "left": "b",
            "right": "e",
            "result": "be",
            "rank": 34
        },
        {
            "left": "l",
            "right": "e",
            "result": "le",
            "rank": 35
        },
        {
            "left": "w",
            "right": "i",
            "result": "wi",
            "rank": 36
        },
        {
            "left": "m",
            "right": "y",
            "result": "my",
            "rank": 37
        },
        {
            "left": "h",
            "right": "i",
            "result": "hi",
            "rank": 38
        },
        {
            "left": "o",
            "right": "w",
            "result": "ow",
            "rank": 39
        },
        {
            "left": "c",
            "right": "e",
            "result": "ce",
            "rank": 40
        },
        {
            "left": "f",
            "right": "or",
            "result": "for",
            "rank": 41
        },
        {
            "left": "a",
            "right": "y",
            "result": "ay",
            "rank": 42
        },
        {
            "left": "a",
            "right": "s",
            "result": "as",
            "rank": 43
        },
        {
            "left": "c",
            "right": "h",
            "result": "ch",
            "rank": 44
        },
        {
            "left": "n",
            "right": "d",
            "result": "nd",
            "rank": 45
        },
        {
            "left": "er",
            "right": "e",
            "result": "ere",
            "rank": 46
        },
        {
            "left": "l",
            "right": "d",
            "result": "ld",
            "rank": 47
        },
        {
            "left": "i",
            "right": "r",
            "result": "ir",
            "rank": 48
        },
        {
            "left": "e",
            "right": "d",
            "result": "ed",
            "rank": 49
        },
        {
            "left": "u",
            "right": "t",
            "result": "ut",
            "rank": 50
        },
        {
            "left": "r",
            "right": "o",
            "result": "ro",
            "rank": 51
        },
        {
            "left": "no",
            "right": "t",
            "result": "not",
            "rank": 52
        },
        {
            "left": "l",
            "right": "i",
            "result": "li",
            "rank": 53
        },
        {
            "left": "d",
            "right": "e",
            "result": "de",
            "rank": 54
        },
        {
            "left": "w",
            "right": "e",
            "result": "we",
            "rank": 55
        },
        {
            "left": "h",
            "right": "at",
            "result": "hat",
            "rank": 56
        },
        {
            "left": "th",
            "right": "at",
            "result": "that",
            "rank": 57
        },
        {
            "left": "g",
            "right": "h",
            "result": "gh",
            "rank": 58
        },
        {
            "left": "A",
            "right": "nd",
            "result": "And",
            "rank": 59
        },
        {
            "left": "k",
            "right": "e",
            "result": "ke",
            "rank": 60
        },
        {
            "left": ";",
            "right": " ",
            "result": "; ",
            "rank": 61
        },
        {
            "left": "'",
            "right": "s",
            "result": "'s",
            "rank": 62
        },
        {
            "left": "o",
            "right": "o",
            "result": "oo",
            "rank": 63
        },
        {
            "left": "ou",
            "right": "r",
            "result": "our",
            "rank": 64
        },
        {
            "left": "wi",
            "right": "th",
            "result": "with",
            "rank": 65
        },
        {
            "left": "o",
            "right": "me",
            "result": "ome",
            "rank": 66
        },
        {
            "left": ";",
            "right": "\n",
            "result": ";\n",
            "rank": 67
        },
        {
            "left": "en",
            "right": "t",
            "result": "ent",
            "rank": 68
        },
        {
            "left": "h",
            "right": "is",
            "result": "his",
            "rank": 69
        },
        {
            "left": ".",
            "right": "\n",
            "result": ".\n",
            "rank": 70
        },
        {
            "left": "r",
            "right": "i",
            "result": "ri",
            "rank": 71
        },
        {
            "left": "you",
            "right": "r",
            "result": "your",
            "rank": 72
        },
        {
            "left": "th",
            "right": "ou",
            "result": "thou",
            "rank": 73
        },
        {
            "left": ":",
            "right": " ",
            "result": ": ",
            "rank": 74
        },
        {
            "left": "th",
            "right": "er",
            "result": "ther",
            "rank": 75
        },
        {
            "left": "a",
            "right": "d",
            "result": "ad",
            "rank": 76
        },
        {
            "left": "a",
            "right": "l",
            "result": "al",
            "rank": 77
        },
        {
            "left": "e",
            "right": "t",
            "result": "et",
            "rank": 78
        },
        {
            "left": "'",
            "right": "d",
            "result": "'d",
            "rank": 79
        },
        {
            "left": "a",
            "right": "ll",
            "result": "all",
            "rank": 80
        },
        {
            "left": "gh",
            "right": "t",
            "result": "ght",
            "rank": 81
        },
        {
            "left": "E",
            "right": "N",
            "result": "EN",
            "rank": 82
        },
        {
            "left": "u",
            "right": "r",
            "result": "ur",
            "rank": 83
        },
        {
            "left": "u",
            "right": "s",
            "result": "us",
            "rank": 84
        },
        {
            "left": "ha",
            "right": "ve",
            "result": "have",
            "rank": 85
        },
        {
            "left": "hi",
            "right": "m",
            "result": "him",
            "rank": 86
        },
        {
            "left": "I",
            "right": "N",
            "result": "IN",
            "rank": 87
        },
        {
            "left": "l",
            "right": "y",
            "result": "ly",
            "rank": 88
        },
        {
            "left": "s",
            "right": "o",
            "result": "so",
            "rank": 89
        },
        {
            "left": "?",
            "right": "\n\n",
            "result": "?\n\n",
            "rank": 90
        },
        {
            "left": "r",
            "right": "a",
            "result": "ra",
            "rank": 91
        },
        {
            "left": "th",
            "right": "is",
            "result": "this",
            "rank": 92
        },
        {
            "left": "I",
            "right": "O",
            "result": "IO",
            "rank": 93
        },
        {
            "left": "or",
            "right": "d",
            "result": "ord",
            "rank": 94
        },
        {
            "left": "d",
            "right": "o",
            "result": "do",
            "rank": 95
        },
        {
            "left": "u",
            "right": "n",
            "result": "un",
            "rank": 96
        },
        {
            "left": "h",
            "right": "o",
            "result": "ho",
            "rank": 97
        },
        {
            "left": "m",
            "right": "a",
            "result": "ma",
            "rank": 98
        },
        {
            "left": ".",
            "right": " ",
            "result": ". ",
            "rank": 99
        },
        {
            "left": "es",
            "right": "s",
            "result": "ess",
            "rank": 100
        },
        {
            "left": "p",
            "right": "e",
            "result": "pe",
            "rank": 101
        },
        {
            "left": "f",
            "right": "e",
            "result": "fe",
            "rank": 102
        },
        {
            "left": "A",
            "right": "R",
            "result": "AR",
            "rank": 103
        },
        {
            "left": "ou",
            "right": "ld",
            "result": "ould",
            "rank": 104
        },
        {
            "left": "ar",
            "right": "e",
            "result": "are",
            "rank": 105
        },
        {
            "left": "l",
            "right": "o",
            "result": "lo",
            "rank": 106
        },
        {
            "left": "h",
            "right": "ere",
            "result": "here",
            "rank": 107
        },
        {
            "left": "oo",
            "right": "d",
            "result": "ood",
            "rank": 108
        },
        {
            "left": "i",
            "right": "d",
            "result": "id",
            "rank": 109
        },
        {
            "left": "th",
            "right": "y",
            "result": "thy",
            "rank": 110
        },
        {
            "left": "v",
            "right": "er",
            "result": "ver",
            "rank": 111
        },
        {
            "left": "f",
            "right": "a",
            "result": "fa",
            "rank": 112
        },
        {
            "left": "c",
            "right": "k",
            "result": "ck",
            "rank": 113
        },
        {
            "left": "on",
            "right": "e",
            "result": "one",
            "rank": 114
        },
        {
            "left": "m",
            "right": "an",
            "result": "man",
            "rank": 115
        },
        {
            "left": "t",
            "right": "i",
            "result": "ti",
            "rank": 116
        },
        {
            "left": "no",
            "right": "w",
            "result": "now",
            "rank": 117
        },
        {
            "left": "T",
            "right": "he",
            "result": "The",
            "rank": 118
        },
        {
            "left": "a",
            "right": "m",
            "result": "am",
            "rank": 119
        },
        {
            "left": "s",
            "right": "ha",
            "result": "sha",
            "rank": 120
        },
        {
            "left": "wi",
            "right": "ll",
            "result": "will",
            "rank": 121
        },
        {
            "left": "n",
            "right": "e",
            "result": "ne",
            "rank": 122
        },
        {
            "left": "g",
            "right": "e",
            "result": "ge",
            "rank": 123
        },
        {
            "left": "a",
            "right": "in",
            "result": "ain",
            "rank": 124
        },
        {
            "left": "b",
            "right": "ut",
            "result": "but",
            "rank": 125
        },
        {
            "left": "ar",
            "right": "d",
            "result": "ard",
            "rank": 126
        },
        {
            "left": "s",
            "right": "u",
            "result": "su",
            "rank": 127
        },
        {
            "left": "h",
            "right": "er",
            "result": "her",
            "rank": 128
        },
        {
            "left": "U",
            "right": "S",
            "result": "US",
            "rank": 129
        },
        {
            "left": "!",
            "right": " ",
            "result": "! ",
            "rank": 130
        },
        {
            "left": "t",
            "right": "er",
            "result": "ter",
            "rank": 131
        },
        {
            "left": "c",
            "right": "on",
            "result": "con",
            "rank": 132
        },
        {
            "left": "p",
            "right": "r",
            "result": "pr",
            "rank": 133
        },
        {
            "left": "T",
            "right": "h",
            "result": "Th",
            "rank": 134
        },
        {
            "left": "T",
            "right": "o",
            "result": "To",
            "rank": 135
        },
        {
            "left": "en",
            "right": "d",
            "result": "end",
            "rank": 136
        },
        {
            "left": "b",
            "right": "y",
            "result": "by",
            "rank": 137
        },
        {
            "left": "the",
            "right": "e",
            "result": "thee",
            "rank": 138
        },
        {
            "left": "u",
            "right": "e",
            "result": "ue",
            "rank": 139
        },
        {
            "left": "o",
            "right": "m",
            "result": "om",
            "rank": 140
        },
        {
            "left": "l",
            "right": "a",
            "result": "la",
            "rank": 141
        },
        {
            "left": "sha",
            "right": "ll",
            "result": "shall",
            "rank": 142
        },
        {
            "left": "ar",
            "right": "t",
            "result": "art",
            "rank": 143
        },
        {
            "left": "m",
            "right": "or",
            "result": "mor",
            "rank": 144
        },
        {
            "left": "u",
            "right": "p",
            "result": "up",
            "rank": 145
        },
        {
            "left": "U",
            "right": "C",
            "result": "UC",
            "rank": 146
        },
        {
            "left": "s",
            "right": "h",
            "result": "sh",
            "rank": 147
        },
        {
            "left": "c",
            "right": "ome",
            "result": "come",
            "rank": 148
        },
        {
            "left": "p",
            "right": "o",
            "result": "po",
            "rank": 149
        },
        {
            "left": "IN",
            "right": "G",
            "result": "ING",
            "rank": 150
        },
        {
            "left": "ro",
            "right": "m",
            "result": "rom",
            "rank": 151
        },
        {
            "left": "ow",
            "right": "n",
            "result": "own",
            "rank": 152
        },
        {
            "left": "A",
            "right": "N",
            "result": "AN",
            "rank": 153
        },
        {
            "left": "u",
            "right": "st",
            "result": "ust",
            "rank": 154
        },
        {
            "left": "t",
            "right": "a",
            "result": "ta",
            "rank": 155
        },
        {
            "left": "T",
            "right": "hat",
            "result": "That",
            "rank": 156
        },
        {
            "left": "t",
            "right": "r",
            "result": "tr",
            "rank": 157
        },
        {
            "left": "w",
            "right": "hat",
            "result": "what",
            "rank": 158
        },
        {
            "left": "E",
            "right": "R",
            "result": "ER",
            "rank": 159
        },
        {
            "left": "O",
            "right": "R",
            "result": "OR",
            "rank": 160
        },
        {
            "left": "ou",
            "right": "s",
            "result": "ous",
            "rank": 161
        },
        {
            "left": "m",
            "right": "o",
            "result": "mo",
            "rank": 162
        },
        {
            "left": "se",
            "right": "l",
            "result": "sel",
            "rank": 163
        },
        {
            "left": "!",
            "right": "\n",
            "result": "!\n",
            "rank": 164
        },
        {
            "left": "E",
            "right": "T",
            "result": "ET",
            "rank": 165
        },
        {
            "left": "t",
            "right": "e",
            "result": "te",
            "rank": 166
        },
        {
            "left": "E",
            "right": "S",
            "result": "ES",
            "rank": 167
        },
        {
            "left": "g",
            "right": "o",
            "result": "go",
            "rank": 168
        },
        {
            "left": "g",
            "right": "ood",
            "result": "good",
            "rank": 169
        },
        {
            "left": "i",
            "right": "f",
            "result": "if",
            "rank": 170
        },
        {
            "left": "i",
            "right": "ll",
            "result": "ill",
            "rank": 171
        },
        {
            "left": "B",
            "right": "ut",
            "result": "But",
            "rank": 172
        },
        {
            "left": "in",
            "right": "e",
            "result": "ine",
            "rank": 173
        },
        {
            "left": "?",
            "right": " ",
            "result": "? ",
            "rank": 174
        },
        {
            "left": "a",
            "right": "th",
            "result": "ath",
            "rank": 175
        },
        {
            "left": "h",
            "right": "en",
            "result": "hen",
            "rank": 176
        },
        {
            "left": "!",
            "right": "\n\n",
            "result": "!\n\n",
            "rank": 177
        },
        {
            "left": "b",
            "right": "le",
            "result": "ble",
            "rank": 178
        },
        {
            "left": "i",
            "right": "ght",
            "result": "ight",
            "rank": 179
        },
        {
            "left": "l",
            "right": "ord",
            "result": "lord",
            "rank": 180
        },
        {
            "left": "'",
            "right": "t",
            "result": "'t",
            "rank": 181
        },
        {
            "left": "hi",
            "right": "ch",
            "result": "hich",
            "rank": 182
        },
        {
            "left": "i",
            "right": "on",
            "result": "ion",
            "rank": 183
        },
        {
            "left": "k",
            "right": "ing",
            "result": "king",
            "rank": 184
        },
        {
            "left": "'",
            "right": "ll",
            "result": "'ll",
            "rank": 185
        },
        {
            "left": "W",
            "right": "hat",
            "result": "What",
            "rank": 186
        },
        {
            "left": "w",
            "right": "as",
            "result": "was",
            "rank": 187
        },
        {
            "left": "b",
            "right": "o",
            "result": "bo",
            "rank": 188
        },
        {
            "left": "i",
            "right": "l",
            "result": "il",
            "rank": 189
        },
        {
            "left": "an",
            "right": "t",
            "result": "ant",
            "rank": 190
        },
        {
            "left": "v",
            "right": "en",
            "result": "ven",
            "rank": 191
        },
        {
            "left": "K",
            "right": "ING",
            "result": "KING",
            "rank": 192
        },
        {
            "left": "s",
            "right": "he",
            "result": "she",
            "rank": 193
        },
        {
            "left": "c",
            "right": "a",
            "result": "ca",
            "rank": 194
        },
        {
            "left": "?",
            "right": "\n",
            "result": "?\n",
            "rank": 195
        },
        {
            "left": "u",
            "right": "l",
            "result": "ul",
            "rank": 196
        },
        {
            "left": "f",
            "right": "rom",
            "result": "from",
            "rank": 197
        },
        {
            "left": "on",
            "right": "g",
            "result": "ong",
            "rank": 198
        },
        {
            "left": "b",
            "right": "l",
            "result": "bl",
            "rank": 199
        },
        {
            "left": "mor",
            "right": "e",
            "result": "more",
            "rank": 200
        },
        {
            "left": "F",
            "right": "or",
            "result": "For",
            "rank": 201
        },
        {
            "left": "we",
            "right": "ll",
            "result": "well",
            "rank": 202
        },
        {
            "left": "the",
            "right": "m",
            "result": "them",
            "rank": 203
        },
        {
            "left": "s",
            "right": "a",
            "result": "sa",
            "rank": 204
        },
        {
            "left": "I",
            "right": "C",
            "result": "IC",
            "rank": 205
        },
        {
            "left": "a",
            "right": "k",
            "result": "ak",
            "rank": 206
        },
        {
            "left": "s",
            "right": "ir",
            "result": "sir",
            "rank": 207
        },
        {
            "left": "sel",
            "right": "f",
            "result": "self",
            "rank": 208
        },
        {
            "left": "in",
            "right": "d",
            "result": "ind",
            "rank": 209
        },
        {
            "left": "w",
            "right": "ould",
            "result": "would",
            "rank": 210
        },
        {
            "left": "th",
            "right": "ere",
            "result": "there",
            "rank": 211
        },
        {
            "left": "w",
            "right": "or",
            "result": "wor",
            "rank": 212
        },
        {
            "left": "lo",
            "right": "ve",
            "result": "love",
            "rank": 213
        },
        {
            "left": "k",
            "right": "now",
            "result": "know",
            "rank": 214
        },
        {
            "left": "p",
            "right": "er",
            "result": "per",
            "rank": 215
        },
        {
            "left": "c",
            "right": "an",
            "result": "can",
            "rank": 216
        },
        {
            "left": "c",
            "right": "t",
            "result": "ct",
            "rank": 217
        },
        {
            "left": "ou",
            "right": "t",
            "result": "out",
            "rank": 218
        },
        {
            "left": "i",
            "right": "ve",
            "result": "ive",
            "rank": 219
        },
        {
            "left": "L",
            "right": "O",
            "result": "LO",
            "rank": 220
        },
        {
            "left": "at",
            "right": "e",
            "result": "ate",
            "rank": 221
        },
        {
            "left": "c",
            "right": "om",
            "result": "com",
            "rank": 222
        },
        {
            "left": "s",
            "right": "ay",
            "result": "say",
            "rank": 223
        },
        {
            "left": "the",
            "right": "n",
            "result": "then",
            "rank": 224
        },
        {
            "left": "se",
            "right": "e",
            "result": "see",
            "rank": 225
        },
        {
            "left": "le",
            "right": "t",
            "result": "let",
            "rank": 226
        },
        {
            "left": "I",
            "right": "US",
            "result": "IUS",
            "rank": 227
        },
        {
            "left": "AR",
            "right": "D",
            "result": "ARD",
            "rank": 228
        },
        {
            "left": "the",
            "right": "ir",
            "result": "their",
            "rank": 229
        },
        {
            "left": "d",
            "right": "i",
            "result": "di",
            "rank": 230
        },
        {
            "left": "M",
            "right": "y",
            "result": "My",
            "rank": 231
        },
        {
            "left": "th",
            "right": "an",
            "result": "than",
            "rank": 232
        },
        {
            "left": "c",
            "right": "i",
            "result": "ci",
            "rank": 233
        },
        {
            "left": "r",
            "right": "y",
            "result": "ry",
            "rank": 234
        },
        {
            "left": "the",
            "right": "y",
            "result": "they",
            "rank": 235
        },
        {
            "left": "-",
            "right": "-",
            "result": "--",
            "rank": 236
        },
        {
            "left": "for",
            "right": "e",
            "result": "fore",
            "rank": 237
        },
        {
            "left": "I",
            "right": "'ll",
            "result": "I'll",
            "rank": 238
        },
        {
            "left": "en",
            "right": "ce",
            "result": "ence",
            "rank": 239
        },
        {
            "left": "a",
            "right": "g",
            "result": "ag",
            "rank": 240
        },
        {
            "left": "e",
            "right": "p",
            "result": "ep",
            "rank": 241
        },
        {
            "left": "li",
            "right": "ke",
            "result": "like",
            "rank": 242
        },
        {
            "left": "e",
            "right": "ar",
            "result": "ear",
            "rank": 243
        },
        {
            "left": "s",
            "right": "pe",
            "result": "spe",
            "rank": 244
        },
        {
            "left": "G",
            "right": "o",
            "result": "Go",
            "rank": 245
        },
        {
            "left": "er",
            "right": "s",
            "result": "ers",
            "rank": 246
        },
        {
            "left": "h",
            "right": "y",
            "result": "hy",
            "rank": 247
        },
        {
            "left": "m",
            "right": "ay",
            "result": "may",
            "rank": 248
        },
        {
            "left": "E",
            "right": "L",
            "result": "EL",
            "rank": 249
        },
        {
            "left": "w",
            "right": "ere",
            "result": "were",
            "rank": 250
        },
        {
            "left": "u",
            "right": "m",
            "result": "um",
            "rank": 251
        },
        {
            "left": "b",
            "right": "ro",
            "result": "bro",
            "rank": 252
        },
        {
            "left": "w",
            "right": "ay",
            "result": "way",
            "rank": 253
        },
        {
            "left": "p",
            "right": "ro",
            "result": "pro",
            "rank": 254
        },
        {
            "left": "A",
            "right": "s",
            "result": "As",
            "rank": 255
        },
        {
            "left": "a",
            "right": "st",
            "result": "ast",
            "rank": 256
        },
        {
            "left": "W",
            "right": "e",
            "result": "We",
            "rank": 257
        },
        {
            "left": "v",
            "right": "es",
            "result": "ves",
            "rank": 258
        },
        {
            "left": "is",
            "right": "h",
            "result": "ish",
            "rank": 259
        },
        {
            "left": "in",
            "right": "k",
            "result": "ink",
            "rank": 260
        },
        {
            "left": "ti",
            "right": "me",
            "result": "time",
            "rank": 261
        },
        {
            "left": "K",
            "right": "E",
            "result": "KE",
            "rank": 262
        },
        {
            "left": "ha",
            "right": "th",
            "result": "hath",
            "rank": 263
        },
        {
            "left": "I",
            "right": "I",
            "result": "II",
            "rank": 264
        },
        {
            "left": "q",
            "right": "u",
            "result": "qu",
            "rank": 265
        },
        {
            "left": "ir",
            "right": "st",
            "result": "irst",
            "rank": 266
        },
        {
            "left": "N",
            "right": "o",
            "result": "No",
            "rank": 267
        },
        {
            "left": "u",
            "right": "re",
            "result": "ure",
            "rank": 268
        },
        {
            "left": "H",
            "right": "e",
            "result": "He",
            "rank": 269
        },
        {
            "left": "ma",
            "right": "ke",
            "result": "make",
            "rank": 270
        },
        {
            "left": "o",
            "right": "l",
            "result": "ol",
            "rank": 271
        },
        {
            "left": "p",
            "right": "le",
            "result": "ple",
            "rank": 272
        },
        {
            "left": "Y",
            "right": "ou",
            "result": "You",
            "rank": 273
        },
        {
            "left": "w",
            "right": "ho",
            "result": "who",
            "rank": 274
        },
        {
            "left": "th",
            "right": "ing",
            "result": "thing",
            "rank": 275
        },
        {
            "left": "r",
            "right": "ow",
            "result": "row",
            "rank": 276
        },
        {
            "left": "m",
            "right": "ust",
            "result": "must",
            "rank": 277
        },
        {
            "left": "g",
            "right": "ra",
            "result": "gra",
            "rank": 278
        },
        {
            "left": "ou",
            "right": "nd",
            "result": "ound",
            "rank": 279
        },
        {
            "left": "i",
            "right": "th",
            "result": "ith",
            "rank": 280
        },
        {
            "left": "a",
            "right": "p",
            "result": "ap",
            "rank": 281
        },
        {
            "left": "a",
            "right": "ve",
            "result": "ave",
            "rank": 282
        },
        {
            "left": "s",
            "right": "ome",
            "result": "some",
            "rank": 283
        },
        {
            "left": "oo",
            "right": "k",
            "result": "ook",
            "rank": 284
        },
        {
            "left": "sh",
            "right": "ould",
            "result": "should",
            "rank": 285
        },
        {
            "left": "O",
            "right": "L",
            "result": "OL",
            "rank": 286
        },
        {
            "left": "fa",
            "right": "ther",
            "result": "father",
            "rank": 287
        },
        {
            "left": "f",
            "right": "i",
            "result": "fi",
            "rank": 288
        },
        {
            "left": "L",
            "right": "A",
            "result": "LA",
            "rank": 289
        },
        {
            "left": "R",
            "right": "O",
            "result": "RO",
            "rank": 290
        },
        {
            "left": "u",
            "right": "se",
            "result": "use",
            "rank": 291
        },
        {
            "left": "T",
            "right": "IO",
            "result": "TIO",
            "rank": 292
        },
        {
            "left": "it",
            "right": "y",
            "result": "ity",
            "rank": 293
        },
        {
            "left": "to",
            "right": "o",
            "result": "too",
            "rank": 294
        },
        {
            "left": "ha",
            "right": "d",
            "result": "had",
            "rank": 295
        },
        {
            "left": "up",
            "right": "on",
            "result": "upon",
            "rank": 296
        },
        {
            "left": "s",
            "right": "on",
            "result": "son",
            "rank": 297
        },
        {
            "left": "d",
            "right": "id",
            "result": "did",
            "rank": 298
        },
        {
            "left": "C",
            "right": "A",
            "result": "CA",
            "rank": 299
        },
        {
            "left": "d",
            "right": "ay",
            "result": "day",
            "rank": 300
        },
        {
            "left": "i",
            "right": "g",
            "result": "ig",
            "rank": 301
        },
        {
            "left": "an",
            "right": "ce",
            "result": "ance",
            "rank": 302
        },
        {
            "left": "w",
            "right": "ard",
            "result": "ward",
            "rank": 303
        },
        {
            "left": "d",
            "right": "is",
            "result": "dis",
            "rank": 304
        },
        {
            "left": "O",
            "right": "N",
            "result": "ON",
            "rank": 305
        },
        {
            "left": "h",
            "right": "ow",
            "result": "how",
            "rank": 306
        },
        {
            "left": "w",
            "right": "o",
            "result": "wo",
            "rank": 307
        },
        {
            "left": "w",
            "right": "hich",
            "result": "which",
            "rank": 308
        },
        {
            "left": "de",
            "right": "ath",
            "result": "death",
            "rank": 309
        },
        {
            "left": "ou",
            "right": "n",
            "result": "oun",
            "rank": 310
        },
        {
            "left": "re",
            "right": "at",
            "result": "reat",
            "rank": 311
        },
        {
            "left": "w",
            "right": "ord",
            "result": "word",
            "rank": 312
        },
        {
            "left": "I",
            "right": "S",
            "result": "IS",
            "rank": 313
        },
        {
            "left": "f",
            "right": "ri",
            "result": "fri",
            "rank": 314
        },
        {
            "left": "I",
            "right": "f",
            "result": "If",
            "rank": 315
        },
        {
            "left": "s",
            "right": "p",
            "result": "sp",
            "rank": 316
        },
        {
            "left": "w",
            "right": "hen",
            "result": "when",
            "rank": 317
        },
        {
            "left": "e",
            "right": "st",
            "result": "est",
            "rank": 318
        },
        {
            "left": "m",
            "right": "en",
            "result": "men",
            "rank": 319
        },
        {
            "left": "spe",
            "right": "ak",
            "result": "speak",
            "rank": 320
        },
        {
            "left": "ent",
            "right": "le",
            "result": "entle",
            "rank": 321
        },
        {
            "left": "I",
            "right": "n",
            "result": "In",
            "rank": 322
        },
        {
            "left": "ag",
            "right": "ain",
            "result": "again",
            "rank": 323
        },
        {
            "left": "he",
            "right": "art",
            "result": "heart",
            "rank": 324
        },
        {
            "left": "IC",
            "right": "H",
            "result": "ICH",
            "rank": 325
        },
        {
            "left": "R",
            "right": "ICH",
            "result": "RICH",
            "rank": 326
        },
        {
            "left": "v",
            "right": "i",
            "result": "vi",
            "rank": 327
        },
        {
            "left": "f",
            "right": "ul",
            "result": "ful",
            "rank": 328
        },
        {
            "left": "D",
            "right": "U",
            "result": "DU",
            "rank": 329
        },
        {
            "left": "DU",
            "right": "KE",
            "result": "DUKE",
            "rank": 330
        },
        {
            "left": "h",
            "right": "and",
            "result": "hand",
            "rank": 331
        },
        {
            "left": "y",
            "right": "et",
            "result": "yet",
            "rank": 332
        },
        {
            "left": "o",
            "right": "ld",
            "result": "old",
            "rank": 333
        },
        {
            "left": "m",
            "right": "ar",
            "result": "mar",
            "rank": 334
        },
        {
            "left": "e",
            "right": "l",
            "result": "el",
            "rank": 335
        },
        {
            "left": "Th",
            "right": "ou",
            "result": "Thou",
            "rank": 336
        },
        {
            "left": "ver",
            "right": "y",
            "result": "very",
            "rank": 337
        },
        {
            "left": "m",
            "right": "ine",
            "result": "mine",
            "rank": 338
        },
        {
            "left": "U",
            "right": "L",
            "result": "UL",
            "rank": 339
        },
        {
            "left": "th",
            "right": "ink",
            "result": "think",
            "rank": 340
        },
        {
            "left": "RICH",
            "right": "ARD",
            "result": "RICHARD",
            "rank": 341
        },
        {
            "left": "EN",
            "right": "TIO",
            "result": "ENTIO",
            "rank": 342
        },
        {
            "left": "ta",
            "right": "ke",
            "result": "take",
            "rank": 343
        },
        {
            "left": "p",
            "right": "l",
            "result": "pl",
            "rank": 344
        },
        {
            "left": "W",
            "right": "hich",
            "result": "Which",
            "rank": 345
        },
        {
            "left": "s",
            "right": "i",
            "result": "si",
            "rank": 346
        },
        {
            "left": "s",
            "right": "we",
            "result": "swe",
            "rank": 347
        },
        {
            "left": "a",
            "right": "c",
            "result": "ac",
            "rank": 348
        },
        {
            "left": "Go",
            "right": "d",
            "result": "God",
            "rank": 349
        },
        {
            "left": "he",
            "right": "ar",
            "result": "hear",
            "rank": 350
        },
        {
            "left": "B",
            "right": "e",
            "result": "Be",
            "rank": 351
        },
        {
            "left": "W",
            "right": "ith",
            "result": "With",
            "rank": 352
        },
        {
            "left": "in",
            "right": "ce",
            "result": "ince",
            "rank": 353
        },
        {
            "left": "IN",
            "right": "C",
            "result": "INC",
            "rank": 354
        },
        {
            "left": "st",
            "right": "r",
            "result": "str",
            "rank": 355
        },
        {
            "left": "ig",
            "right": "n",
            "result": "ign",
            "rank": 356
        },
        {
            "left": "W",
            "right": "hy",
            "result": "Why",
            "rank": 357
        },
        {
            "left": "g",
            "right": "ive",
            "result": "give",
            "rank": 358
        },
        {
            "left": "O",
            "right": "f",
            "result": "Of",
            "rank": 359
        },
        {
            "left": "n",
            "right": "a",
            "result": "na",
            "rank": 360
        },
        {
            "left": "su",
            "right": "ch",
            "result": "such",
            "rank": 361
        },
        {
            "left": "F",
            "right": "irst",
            "result": "First",
            "rank": 362
        },
        {
            "left": "l",
            "right": "and",
            "result": "land",
            "rank": 363
        },
        {
            "left": "an",
            "right": "g",
            "result": "ang",
            "rank": 364
        },
        {
            "left": "n",
            "right": "ess",
            "result": "ness",
            "rank": 365
        },
        {
            "left": "mo",
            "right": "st",
            "result": "most",
            "rank": 366
        },
        {
            "left": "bl",
            "right": "ood",
            "result": "blood",
            "rank": 367
        },
        {
            "left": "u",
            "right": "ch",
            "result": "uch",
            "rank": 368
        },
        {
            "left": "A",
            "right": "B",
            "result": "AB",
            "rank": 369
        },
        {
            "left": "e",
            "right": "x",
            "result": "ex",
            "rank": 370
        },
        {
            "left": "d",
            "right": "es",
            "result": "des",
            "rank": 371
        },
        {
            "left": "st",
            "right": "er",
            "result": "ster",
            "rank": 372
        },
        {
            "left": "bro",
            "right": "ther",
            "result": "brother",
            "rank": 373
        },
        {
            "left": "the",
            "right": "se",
            "result": "these",
            "rank": 374
        },
        {
            "left": "te",
            "right": "ll",
            "result": "tell",
            "rank": 375
        },
        {
            "left": "he",
            "right": "a",
            "result": "hea",
            "rank": 376
        },
        {
            "left": "b",
            "right": "r",
            "result": "br",
            "rank": 377
        },
        {
            "left": "an",
            "right": "y",
            "result": "any",
            "rank": 378
        },
        {
            "left": "is",
            "right": "e",
            "result": "ise",
            "rank": 379
        },
        {
            "left": "e",
            "right": "y",
            "result": "ey",
            "rank": 380
        },
        {
            "left": "b",
            "right": "a",
            "result": "ba",
            "rank": 381
        },
        {
            "left": "on",
            "right": "our",
            "result": "onour",
            "rank": 382
        },
        {
            "left": "U",
            "right": "E",
            "result": "UE",
            "rank": 383
        },
        {
            "left": "b",
            "right": "re",
            "result": "bre",
            "rank": 384
        },
        {
            "left": "o",
            "right": "ther",
            "result": "other",
            "rank": 385
        },
        {
            "left": "i",
            "right": "m",
            "result": "im",
            "rank": 386
        },
        {
            "left": "w",
            "right": "here",
            "result": "where",
            "rank": 387
        },
        {
            "left": "ll",
            "right": "ow",
            "result": "llow",
            "rank": 388
        },
        {
            "left": "H",
            "right": "ow",
            "result": "How",
            "rank": 389
        },
        {
            "left": "q",
            "right": "ue",
            "result": "que",
            "rank": 390
        },
        {
            "left": "C",
            "right": "ome",
            "result": "Come",
            "rank": 391
        },
        {
            "left": "l",
            "right": "ess",
            "result": "less",
            "rank": 392
        },
        {
            "left": "t",
            "right": "y",
            "result": "ty",
            "rank": 393
        },
        {
            "left": "ar",
            "right": "m",
            "result": "arm",
            "rank": 394
        },
        {
            "left": "li",
            "right": "fe",
            "result": "life",
            "rank": 395
        },
        {
            "left": "c",
            "right": "oun",
            "result": "coun",
            "rank": 396
        },
        {
            "left": "T",
            "right": "his",
            "result": "This",
            "rank": 397
        },
        {
            "left": "ES",
            "right": "T",
            "result": "EST",
            "rank": 398
        },
        {
            "left": "l",
            "right": "ook",
            "result": "look",
            "rank": 399
        },
        {
            "left": "ne",
            "right": "w",
            "result": "new",
            "rank": 400
        },
        {
            "left": "or",
            "right": "t",
            "result": "ort",
            "rank": 401
        },
        {
            "left": "S",
            "right": "o",
            "result": "So",
            "rank": 402
        },
        {
            "left": "UC",
            "right": "H",
            "result": "UCH",
            "rank": 403
        },
        {
            "left": "fri",
            "right": "end",
            "result": "friend",
            "rank": 404
        },
        {
            "left": "W",
            "right": "ho",
            "result": "Who",
            "rank": 405
        },
        {
            "left": "ou",
            "right": "l",
            "result": "oul",
            "rank": 406
        },
        {
            "left": "g",
            "right": "entle",
            "result": "gentle",
            "rank": 407
        },
        {
            "left": "u",
            "right": "ght",
            "result": "ught",
            "rank": 408
        },
        {
            "left": "v",
            "right": "o",
            "result": "vo",
            "rank": 409
        },
        {
            "left": "G",
            "right": "LO",
            "result": "GLO",
            "rank": 410
        },
        {
            "left": "GLO",
            "right": "UC",
            "result": "GLOUC",
            "rank": 411
        },
        {
            "left": "GLOUC",
            "right": "EST",
            "result": "GLOUCEST",
            "rank": 412
        },
        {
            "left": "GLOUCEST",
            "right": "ER",
            "result": "GLOUCESTER",
            "rank": 413
        },
        {
            "left": "c",
            "right": "hi",
            "result": "chi",
            "rank": 414
        },
        {
            "left": "ar",
            "right": "s",
            "result": "ars",
            "rank": 415
        },
        {
            "left": "a",
            "right": "f",
            "result": "af",
            "rank": 416
        },
        {
            "left": "m",
            "right": "is",
            "result": "mis",
            "rank": 417
        },
        {
            "left": "v",
            "right": "ing",
            "result": "ving",
            "rank": 418
        },
        {
            "left": "ad",
            "right": "y",
            "result": "ady",
            "rank": 419
        },
        {
            "left": "ha",
            "right": "st",
            "result": "hast",
            "rank": 420
        },
        {
            "left": "L",
            "right": "ord",
            "result": "Lord",
            "rank": 421
        },
        {
            "left": "a",
            "right": "b",
            "result": "ab",
            "rank": 422
        },
        {
            "left": "ur",
            "right": "se",
            "result": "urse",
            "rank": 423
        },
        {
            "left": "t",
            "right": "s",
            "result": "ts",
            "rank": 424
        },
        {
            "left": "R",
            "right": "ome",
            "result": "Rome",
            "rank": 425
        },
        {
            "left": "n",
            "right": "ight",
            "result": "night",
            "rank": 426
        },
        {
            "left": "of",
            "right": "f",
            "result": "off",
            "rank": 427
        },
        {
            "left": "r",
            "right": "own",
            "result": "rown",
            "rank": 428
        },
        {
            "left": "fa",
            "right": "ir",
            "result": "fair",
            "rank": 429
        },
        {
            "left": "R",
            "right": "Y",
            "result": "RY",
            "rank": 430
        },
        {
            "left": "ma",
            "right": "de",
            "result": "made",
            "rank": 431
        },
        {
            "left": "a",
            "right": "ge",
            "result": "age",
            "rank": 432
        },
        {
            "left": "'",
            "right": "st",
            "result": "'st",
            "rank": 433
        },
        {
            "left": "L",
            "right": "E",
            "result": "LE",
            "rank": 434
        },
        {
            "left": "Q",
            "right": "UE",
            "result": "QUE",
            "rank": 435
        },
        {
            "left": "QUE",
            "right": "EN",
            "result": "QUEEN",
            "rank": 436
        },
        {
            "left": "V",
            "right": "INC",
            "result": "VINC",
            "rank": 437
        },
        {
            "left": "VINC",
            "right": "ENTIO",
            "result": "VINCENTIO",
            "rank": 438
        },
        {
            "left": "h",
            "right": "onour",
            "result": "honour",
            "rank": 439
        },
        {
            "left": "S",
            "right": "e",
            "result": "Se",
            "rank": 440
        },
        {
            "left": "an",
            "right": "s",
            "result": "ans",
            "rank": 441
        },
        {
            "left": "ti",
            "right": "on",
            "result": "tion",
            "rank": 442
        },
        {
            "left": "m",
            "right": "uch",
            "result": "much",
            "rank": 443
        },
        {
            "left": "O",
            "right": "F",
            "result": "OF",
            "rank": 444
        },
        {
            "left": "on",
            "right": "d",
            "result": "ond",
            "rank": 445
        },
        {
            "left": "I",
            "right": "s",
            "result": "Is",
            "rank": 446
        },
        {
            "left": "li",
            "right": "e",
            "result": "lie",
            "rank": 447
        },
        {
            "left": "W",
            "right": "here",
            "result": "Where",
            "rank": 448
        },
        {
            "left": "ur",
            "right": "n",
            "result": "urn",
            "rank": 449
        },
        {
            "left": "U",
            "right": "M",
            "result": "UM",
            "rank": 450
        },
        {
            "left": "L",
            "right": "AN",
            "result": "LAN",
            "rank": 451
        },
        {
            "left": "M",
            "right": "ar",
            "result": "Mar",
            "rank": 452
        },
        {
            "left": "p",
            "right": "re",
            "result": "pre",
            "rank": 453
        },
        {
            "left": "st",
            "right": "and",
            "result": "stand",
            "rank": 454
        },
        {
            "left": "con",
            "right": "d",
            "result": "cond",
            "rank": 455
        },
        {
            "left": "H",
            "right": "EN",
            "result": "HEN",
            "rank": 456
        },
        {
            "left": "'t",
            "right": "is",
            "result": "'tis",
            "rank": 457
        },
        {
            "left": "N",
            "right": "ow",
            "result": "Now",
            "rank": 458
        },
        {
            "left": "c",
            "right": "he",
            "result": "che",
            "rank": 459
        },
        {
            "left": "na",
            "right": "me",
            "result": "name",
            "rank": 460
        },
        {
            "left": "t",
            "right": "le",
            "result": "tle",
            "rank": 461
        },
        {
            "left": "e",
            "right": "m",
            "result": "em",
            "rank": 462
        },
        {
            "left": "e",
            "right": "f",
            "result": "ef",
            "rank": 463
        },
        {
            "left": "HEN",
            "right": "RY",
            "result": "HENRY",
            "rank": 464
        },
        {
            "left": "n",
            "right": "g",
            "result": "ng",
            "rank": 465
        },
        {
            "left": "p",
            "right": "art",
            "result": "part",
            "rank": 466
        },
        {
            "left": "ne",
            "right": "ver",
            "result": "never",
            "rank": 467
        },
        {
            "left": "b",
            "right": "er",
            "result": "ber",
            "rank": 468
        },
        {
            "left": "fe",
            "right": "ar",
            "result": "fear",
            "rank": 469
        },
        {
            "left": "i",
            "right": "o",
            "result": "io",
            "rank": 470
        },
        {
            "left": "i",
            "right": "es",
            "result": "ies",
            "rank": 471
        },
        {
            "left": "c",
            "right": "es",
            "result": "ces",
            "rank": 472
        },
        {
            "left": "Y",
            "right": "our",
            "result": "Your",
            "rank": 473
        },
        {
            "left": "li",
            "right": "ve",
            "result": "live",
            "rank": 474
        },
        {
            "left": "l",
            "right": "t",
            "result": "lt",
            "rank": 475
        },
        {
            "left": "ow",
            "right": "er",
            "result": "ower",
            "rank": 476
        },
        {
            "left": "s",
            "right": "er",
            "result": "ser",
            "rank": 477
        },
        {
            "left": "j",
            "right": "o",
            "result": "jo",
            "rank": 478
        },
        {
            "left": "u",
            "right": "ke",
            "result": "uke",
            "rank": 479
        },
        {
            "left": "I",
            "right": "t",
            "result": "It",
            "rank": 480
        },
        {
            "left": "g",
            "right": "reat",
            "result": "great",
            "rank": 481
        },
        {
            "left": "c",
            "right": "all",
            "result": "call",
            "rank": 482
        },
        {
            "left": "as",
            "right": "s",
            "result": "ass",
            "rank": 483
        },
        {
            "left": "o",
            "right": "'",
            "result": "o'",
            "rank": 484
        },
        {
            "left": "f",
            "right": "o",
            "result": "fo",
            "rank": 485
        },
        {
            "left": "he",
            "right": "ad",
            "result": "head",
            "rank": 486
        },
        {
            "left": "Y",
            "right": "OR",
            "result": "YOR",
            "rank": 487
        },
        {
            "left": "YOR",
            "right": "K",
            "result": "YORK",
            "rank": 488
        },
        {
            "left": "re",
            "right": "e",
            "result": "ree",
            "rank": 489
        },
        {
            "left": "u",
            "right": "nd",
            "result": "und",
            "rank": 490
        },
        {
            "left": "m",
            "right": "ent",
            "result": "ment",
            "rank": 491
        },
        {
            "left": "at",
            "right": "ion",
            "result": "ation",
            "rank": 492
        },
        {
            "left": "O",
            "right": "r",
            "result": "Or",
            "rank": 493
        },
        {
            "left": "IN",
            "right": "IUS",
            "result": "INIUS",
            "rank": 494
        },
        {
            "left": "can",
            "right": "not",
            "result": "cannot",
            "rank": 495
        },
        {
            "left": "pr",
            "right": "ay",
            "result": "pray",
            "rank": 496
        },
        {
            "left": "e",
            "right": "ver",
            "result": "ever",
            "rank": 497
        },
        {
            "left": "hea",
            "right": "ven",
            "result": "heaven",
            "rank": 498
        },
        {
            "left": "re",
            "right": "d",
            "result": "red",
            "rank": 499
        },
        {
            "left": "tr",
            "right": "ue",
            "result": "true",
            "rank": 500
        }
    ]
}